{
  "version": "1.0",
  "truncation": {
    "direction": "Right",
    "max_length": 512,
    "strategy": "LongestFirst",
    "stride": 0
  },
  "padding": {
    "strategy": "BatchLongest",
    "direction": "Right",
    "pad_to_multiple_of": null,
    "pad_id": 3,
    "pad_type_id": 0,
    "pad_token": "[PAD]"
  },
  "added_tokens": [
    {
      "id": 0,
      "content": "[UNK]",
      "single_word": false,
      "lstrip": false,
      "rstrip": false,
      "normalized": false,
      "special": true
    },
    {
      "id": 1,
      "content": "[CLS]",
      "single_word": false,
      "lstrip": false,
      "rstrip": false,
      "normalized": false,
      "special": true
    },
    {
      "id": 2,
      "content": "[SEP]",
      "single_word": false,
      "lstrip": false,
      "rstrip": false,
      "normalized": false,
      "special": true
    },
    {
      "id": 3,
      "content": "[PAD]",
      "single_word": false,
      "lstrip": false,
      "rstrip": false,
      "normalized": false,
      "special": true
    },
    {
      "id": 4,
      "content": "[MASK]",
      "single_word": false,
      "lstrip": false,
      "rstrip": false,
      "normalized": false,
      "special": true
    }
  ],
  "normalizer": {
    "type": "BertNormalizer",
    "clean_text": true,
    "handle_chinese_chars": true,
    "strip_accents": null,
    "lowercase": true
  },
  "pre_tokenizer": {
    "type": "Whitespace"
  },
  "post_processor": {
    "type": "TemplateProcessing",
    "single": [
      {
        "SpecialToken": {
          "id": "[CLS]",
          "type_id": 0
        }
      },
      {
        "Sequence": {
          "id": "A",
          "type_id": 0
        }
      },
      {
        "SpecialToken": {
          "id": "[SEP]",
          "type_id": 0
        }
      }
    ],
    "pair": [
      {
        "SpecialToken": {
          "id": "[CLS]",
          "type_id": 0
        }
      },
      {
        "Sequence": {
          "id": "A",
          "type_id": 0
        }
      },
      {
        "SpecialToken": {
          "id": "[SEP]",
          "type_id": 0
        }
      },
      {
        "Sequence": {
          "id": "B",
          "type_id": 1
        }
      },
      {
        "SpecialToken": {
          "id": "[SEP]",
          "type_id": 1
        }
      }
    ],
    "special_tokens": {
      "[CLS]": {
        "id": "[CLS]",
        "ids": [
          1
        ],
        "tokens": [
          "[CLS]"
        ]
      },
      "[SEP]": {
        "id": "[SEP]",
        "ids": [
          2
        ],
        "tokens": [
          "[SEP]"
        ]
      }
    }
  },
  "decoder": {
    "type": "WordPiece",
    "prefix": "##",
    "cleanup": true
  },
  "model": {
    "type": "BPE",
    "dropout": null,
    "unk_token": "[UNK]",
    "continuing_subword_prefix": null,
    "end_of_word_suffix": null,
    "fuse_unk": false,
    "vocab": {
      "[UNK]": 0,
      "[CLS]": 1,
      "[SEP]": 2,
      "[PAD]": 3,
      "[MASK]": 4,
      "!": 5,
      "\"": 6,
      "#": 7,
      "$": 8,
      "%": 9,
      "&": 10,
      "'": 11,
      "(": 12,
      ")": 13,
      "*": 14,
      "+": 15,
      ",": 16,
      "-": 17,
      ".": 18,
      "/": 19,
      "0": 20,
      "1": 21,
      "2": 22,
      "3": 23,
      "4": 24,
      "5": 25,
      "6": 26,
      "7": 27,
      "8": 28,
      "9": 29,
      ":": 30,
      ";": 31,
      "<": 32,
      "=": 33,
      ">": 34,
      "?": 35,
      "@": 36,
      "[": 37,
      "\\": 38,
      "]": 39,
      "^": 40,
      "_": 41,
      "`": 42,
      "a": 43,
      "b": 44,
      "c": 45,
      "d": 46,
      "e": 47,
      "f": 48,
      "g": 49,
      "h": 50,
      "i": 51,
      "j": 52,
      "k": 53,
      "l": 54,
      "m": 55,
      "n": 56,
      "o": 57,
      "p": 58,
      "q": 59,
      "r": 60,
      "s": 61,
      "t": 62,
      "u": 63,
      "v": 64,
      "w": 65,
      "x": 66,
      "y": 67,
      "z": 68,
      "{": 69,
      "|": 70,
      "}": 71,
      "~": 72,
      "¡": 73,
      "¢": 74,
      "£": 75,
      "¤": 76,
      "¥": 77,
      "§": 78,
      "©": 79,
      "«": 80,
      "®": 81,
      "¯": 82,
      "°": 83,
      "±": 84,
      "²": 85,
      "³": 86,
      "´": 87,
      "µ": 88,
      "¶": 89,
      "·": 90,
      "¹": 91,
      "º": 92,
      "»": 93,
      "¼": 94,
      "½": 95,
      "¾": 96,
      "¿": 97,
      "×": 98,
      "ß": 99,
      "æ": 100,
      "ð": 101,
      "÷": 102,
      "ø": 103,
      "þ": 104,
      "đ": 105,
      "ħ": 106,
      "ı": 107,
      "ĸ": 108,
      "ł": 109,
      "ŋ": 110,
      "œ": 111,
      "ŧ": 112,
      "ſ": 113,
      "ƀ": 114,
      "ƈ": 115,
      "ƍ": 116,
      "ƒ": 117,
      "ƙ": 118,
      "ƛ": 119,
      "ƣ": 120,
      "ƥ": 121,
      "ƭ": 122,
      "ƿ": 123,
      "ǀ": 124,
      "ǁ": 125,
      "ǂ": 126,
      "ǃ": 127,
      "ǝ": 128,
      "ȝ": 129,
      "ȷ": 130,
      "ȼ": 131,
      "ɉ": 132,
      "ɐ": 133,
      "ɑ": 134,
      "ɒ": 135,
      "ɓ": 136,
      "ɔ": 137,
      "ɕ": 138,
      "ɖ": 139,
      "ɗ": 140,
      "ɘ": 141,
      "ə": 142,
      "ɚ": 143,
      "ɛ": 144,
      "ɜ": 145,
      "ɞ": 146,
      "ɟ": 147,
      "ɠ": 148,
      "ɡ": 149,
      "ɢ": 150,
      "ɣ": 151,
      "ɤ": 152,
      "ɥ": 153,
      "ɦ": 154,
      "ɧ": 155,
      "ɨ": 156,
      "ɪ": 157,
      "ɫ": 158,
      "ɬ": 159,
      "ɭ": 160,
      "ɮ": 161,
      "ɯ": 162,
      "ɰ": 163,
      "ɱ": 164,
      "ɲ": 165,
      "ɳ": 166,
      "ɴ": 167,
      "ɵ": 168,
      "ɶ": 169,
      "ɷ": 170,
      "ɸ": 171,
      "ɹ": 172,
      "ɺ": 173,
      "ɻ": 174,
      "ɽ": 175,
      "ɾ": 176,
      "ʀ": 177,
      "ʁ": 178,
      "ʂ": 179,
      "ʃ": 180,
      "ʄ": 181,
      "ʇ": 182,
      "ʈ": 183,
      "ʉ": 184,
      "ʊ": 185,
      "ʋ": 186,
      "ʌ": 187,
      "ʍ": 188,
      "ʎ": 189,
      "ʏ": 190,
      "ʐ": 191,
      "ʑ": 192,
      "ʒ": 193,
      "ʔ": 194,
      "ʕ": 195,
      "ʖ": 196,
      "ʗ": 197,
      "ʘ": 198,
      "ʙ": 199,
      "ʛ": 200,
      "ʝ": 201,
      "ʞ": 202,
      "ʟ": 203,
      "ʠ": 204,
      "ʡ": 205,
      "ʢ": 206,
      "ʰ": 207,
      "ʱ": 208,
      "ʲ": 209,
      "ʳ": 210,
      "ʷ": 211,
      "ʹ": 212,
      "ʻ": 213,
      "ʼ": 214,
      "ʽ": 215,
      "ʾ": 216,
      "ʿ": 217,
      "ˀ": 218,
      "ˁ": 219,
      "ˆ": 220,
      "ˇ": 221,
      "ˈ": 222,
      "ˌ": 223,
      "ː": 224,
      "ˑ": 225,
      "˔": 226,
      "˕": 227,
      "˖": 228,
      "˘": 229,
      "˚": 230,
      "˜": 231,
      "˞": 232,
      "ˠ": 233,
      "ˢ": 234,
      "ˣ": 235,
      "ˤ": 236,
      "˥": 237,
      "˦": 238,
      "˧": 239,
      "˨": 240,
      "˩": 241,
      "΄": 242,
      "α": 243,
      "β": 244,
      "γ": 245,
      "δ": 246,
      "ε": 247,
      "ζ": 248,
      "η": 249,
      "θ": 250,
      "ι": 251,
      "κ": 252,
      "λ": 253,
      "μ": 254,
      "ν": 255,
      "ξ": 256,
      "ο": 257,
      "π": 258,
      "ρ": 259,
      "ς": 260,
      "σ": 261,
      "τ": 262,
      "υ": 263,
      "φ": 264,
      "χ": 265,
      "ψ": 266,
      "ω": 267,
      "ϑ": 268,
      "ϕ": 269,
      "ϝ": 270,
      "ϟ": 271,
      "ϵ": 272,
      "а": 273,
      "б": 274,
      "в": 275,
      "г": 276,
      "д": 277,
      "е": 278,
      "ж": 279,
      "з": 280,
      "и": 281,
      "к": 282,
      "л": 283,
      "м": 284,
      "н": 285,
      "о": 286,
      "п": 287,
      "р": 288,
      "с": 289,
      "т": 290,
      "у": 291,
      "ф": 292,
      "х": 293,
      "ц": 294,
      "ч": 295,
      "ш": 296,
      "щ": 297,
      "ъ": 298,
      "ы": 299,
      "ь": 300,
      "э": 301,
      "ю": 302,
      "я": 303,
      "ђ": 304,
      "є": 305,
      "і": 306,
      "ј": 307,
      "љ": 308,
      "њ": 309,
      "ћ": 310,
      "ѡ": 311,
      "ѣ": 312,
      "ѥ": 313,
      "ѧ": 314,
      "ѯ": 315,
      "ѹ": 316,
      "ғ": 317,
      "қ": 318,
      "ү": 319,
      "ҳ": 320,
      "ҷ": 321,
      "ө": 322,
      "ӷ": 323,
      "ա": 324,
      "բ": 325,
      "գ": 326,
      "դ": 327,
      "ե": 328,
      "զ": 329,
      "է": 330,
      "ը": 331,
      "թ": 332,
      "ժ": 333,
      "ի": 334,
      "լ": 335,
      "խ": 336,
      "ծ": 337,
      "կ": 338,
      "հ": 339,
      "ձ": 340,
      "ղ": 341,
      "ճ": 342,
      "մ": 343,
      "յ": 344,
      "ն": 345,
      "շ": 346,
      "ո": 347,
      "չ": 348,
      "պ": 349,
      "ջ": 350,
      "ռ": 351,
      "ս": 352,
      "վ": 353,
      "տ": 354,
      "ր": 355,
      "ց": 356,
      "ւ": 357,
      "փ": 358,
      "ք": 359,
      "օ": 360,
      "և": 361,
      "א": 362,
      "ב": 363,
      "ג": 364,
      "ד": 365,
      "ה": 366,
      "ו": 367,
      "ז": 368,
      "ח": 369,
      "ט": 370,
      "י": 371,
      "ך": 372,
      "כ": 373,
      "ל": 374,
      "ם": 375,
      "מ": 376,
      "ן": 377,
      "נ": 378,
      "ס": 379,
      "ע": 380,
      "ף": 381,
      "פ": 382,
      "ץ": 383,
      "צ": 384,
      "ק": 385,
      "ר": 386,
      "ש": 387,
      "ת": 388,
      "ױ": 389,
      "׳": 390,
      "،": 391,
      "ء": 392,
      "ا": 393,
      "ب": 394,
      "ة": 395,
      "ت": 396,
      "ث": 397,
      "ج": 398,
      "ح": 399,
      "خ": 400,
      "د": 401,
      "ذ": 402,
      "ر": 403,
      "ز": 404,
      "س": 405,
      "ش": 406,
      "ص": 407,
      "ض": 408,
      "ط": 409,
      "ظ": 410,
      "ع": 411,
      "غ": 412,
      "ـ": 413,
      "ف": 414,
      "ق": 415,
      "ك": 416,
      "ل": 417,
      "م": 418,
      "ن": 419,
      "ه": 420,
      "و": 421,
      "ى": 422,
      "ي": 423,
      "١": 424,
      "٧": 425,
      "پ": 426,
      "چ": 427,
      "ڈ": 428,
      "ڠ": 429,
      "ک": 430,
      "ڬ": 431,
      "گ": 432,
      "ں": 433,
      "ھ": 434,
      "ہ": 435,
      "ی": 436,
      "ۍ": 437,
      "ے": 438,
      "ە": 439,
      "ܐ": 440,
      "ܒ": 441,
      "ܔ": 442,
      "ܕ": 443,
      "ܗ": 444,
      "ܘ": 445,
      "ܙ": 446,
      "ܚ": 447,
      "ܛ": 448,
      "ܝ": 449,
      "ܠ": 450,
      "ܡ": 451,
      "ܢ": 452,
      "ܣ": 453,
      "ܥ": 454,
      "ܦ": 455,
      "ܪ": 456,
      "ܬ": 457,
      "ः": 458,
      "अ": 459,
      "आ": 460,
      "इ": 461,
      "ई": 462,
      "उ": 463,
      "ऋ": 464,
      "ए": 465,
      "ऐ": 466,
      "औ": 467,
      "क": 468,
      "ख": 469,
      "ग": 470,
      "घ": 471,
      "ङ": 472,
      "च": 473,
      "छ": 474,
      "ज": 475,
      "ञ": 476,
      "ट": 477,
      "ठ": 478,
      "ड": 479,
      "ण": 480,
      "त": 481,
      "थ": 482,
      "द": 483,
      "ध": 484,
      "न": 485,
      "प": 486,
      "फ": 487,
      "ब": 488,
      "भ": 489,
      "म": 490,
      "य": 491,
      "र": 492,
      "ल": 493,
      "व": 494,
      "श": 495,
      "ष": 496,
      "स": 497,
      "ह": 498,
      "ऽ": 499,
      "ा": 500,
      "ि": 501,
      "ी": 502,
      "ॉ": 503,
      "ॊ": 504,
      "ो": 505,
      "ौ": 506,
      "ॐ": 507,
      "।": 508,
      "॥": 509,
      "१": 510,
      "२": 511,
      "३": 512,
      "ং": 513,
      "অ": 514,
      "আ": 515,
      "ই": 516,
      "এ": 517,
      "ক": 518,
      "খ": 519,
      "গ": 520,
      "ঙ": 521,
      "চ": 522,
      "জ": 523,
      "ট": 524,
      "ড": 525,
      "ঢ": 526,
      "ণ": 527,
      "ত": 528,
      "থ": 529,
      "দ": 530,
      "ন": 531,
      "প": 532,
      "ব": 533,
      "ভ": 534,
      "ম": 535,
      "য": 536,
      "র": 537,
      "ল": 538,
      "শ": 539,
      "ষ": 540,
      "স": 541,
      "হ": 542,
      "া": 543,
      "ি": 544,
      "ী": 545,
      "ে": 546,
      "ৈ": 547,
      "ৰ": 548,
      "ਅ": 549,
      "ਉ": 550,
      "ਖ": 551,
      "ਘ": 552,
      "ਜ": 553,
      "ਝ": 554,
      "ਦ": 555,
      "ਲ": 556,
      "ਵ": 557,
      "ਸ": 558,
      "ਹ": 559,
      "ਾ": 560,
      "ਿ": 561,
      "ખ": 562,
      "ફ": 563,
      "બ": 564,
      "ર": 565,
      "લ": 566,
      "સ": 567,
      "ા": 568,
      "ો": 569,
      "ପ": 570,
      "ର": 571,
      "ୀ": 572,
      "ஃ": 573,
      "அ": 574,
      "ஆ": 575,
      "இ": 576,
      "ஈ": 577,
      "எ": 578,
      "ஒ": 579,
      "க": 580,
      "ங": 581,
      "ச": 582,
      "ட": 583,
      "ண": 584,
      "த": 585,
      "ந": 586,
      "ன": 587,
      "ப": 588,
      "ம": 589,
      "ய": 590,
      "ர": 591,
      "ற": 592,
      "ல": 593,
      "ள": 594,
      "ழ": 595,
      "வ": 596,
      "ஸ": 597,
      "ா": 598,
      "ி": 599,
      "ு": 600,
      "ூ": 601,
      "ெ": 602,
      "ே": 603,
      "ை": 604,
      "ం": 605,
      "క": 606,
      "ఖ": 607,
      "గ": 608,
      "జ": 609,
      "ట": 610,
      "ఠ": 611,
      "డ": 612,
      "త": 613,
      "థ": 614,
      "ద": 615,
      "న": 616,
      "ప": 617,
      "బ": 618,
      "భ": 619,
      "మ": 620,
      "య": 621,
      "ర": 622,
      "ల": 623,
      "వ": 624,
      "ష": 625,
      "స": 626,
      "ు": 627,
      "ಂ": 628,
      "ಃ": 629,
      "ಕ": 630,
      "ಖ": 631,
      "ಗ": 632,
      "ಚ": 633,
      "ಟ": 634,
      "ಠ": 635,
      "ಡ": 636,
      "ತ": 637,
      "ದ": 638,
      "ನ": 639,
      "ಪ": 640,
      "ಬ": 641,
      "ಭ": 642,
      "ಮ": 643,
      "ಯ": 644,
      "ರ": 645,
      "ಱ": 646,
      "ಲ": 647,
      "ಳ": 648,
      "ವ": 649,
      "ಶ": 650,
      "ಸ": 651,
      "ಹ": 652,
      "ಾ": 653,
      "ು": 654,
      "ೂ": 655,
      "ೕ": 656,
      "ೞ": 657,
      "അ": 658,
      "ങ": 659,
      "ദ": 660,
      "ന": 661,
      "പ": 662,
      "മ": 663,
      "യ": 664,
      "ര": 665,
      "ള": 666,
      "വ": 667,
      "ശ": 668,
      "സ": 669,
      "ഹ": 670,
      "ാ": 671,
      "ി": 672,
      "අ": 673,
      "එ": 674,
      "ක": 675,
      "ග": 676,
      "ජ": 677,
      "ත": 678,
      "ධ": 679,
      "න": 680,
      "ප": 681,
      "ම": 682,
      "ය": 683,
      "ර": 684,
      "ල": 685,
      "ව": 686,
      "ශ": 687,
      "හ": 688,
      "ළ": 689,
      "ා": 690,
      "ැ": 691,
      "ෙ": 692,
      "ก": 693,
      "ข": 694,
      "ค": 695,
      "ฆ": 696,
      "ง": 697,
      "จ": 698,
      "ฉ": 699,
      "ช": 700,
      "ซ": 701,
      "ญ": 702,
      "ฎ": 703,
      "ฏ": 704,
      "ฐ": 705,
      "ฑ": 706,
      "ณ": 707,
      "ด": 708,
      "ต": 709,
      "ถ": 710,
      "ท": 711,
      "ธ": 712,
      "น": 713,
      "บ": 714,
      "ป": 715,
      "ผ": 716,
      "ฝ": 717,
      "พ": 718,
      "ฟ": 719,
      "ภ": 720,
      "ม": 721,
      "ย": 722,
      "ร": 723,
      "ฤ": 724,
      "ล": 725,
      "ว": 726,
      "ศ": 727,
      "ษ": 728,
      "ส": 729,
      "ห": 730,
      "ฬ": 731,
      "อ": 732,
      "ฮ": 733,
      "ะ": 734,
      "า": 735,
      "ำ": 736,
      "฿": 737,
      "เ": 738,
      "แ": 739,
      "โ": 740,
      "ใ": 741,
      "ไ": 742,
      "་": 743,
      "༌": 744,
      "།": 745,
      "ཀ": 746,
      "ཁ": 747,
      "ག": 748,
      "ང": 749,
      "ཆ": 750,
      "ཇ": 751,
      "ཐ": 752,
      "ད": 753,
      "ན": 754,
      "པ": 755,
      "བ": 756,
      "མ": 757,
      "ཙ": 758,
      "ཚ": 759,
      "ཛ": 760,
      "འ": 761,
      "ཡ": 762,
      "ར": 763,
      "ལ": 764,
      "ས": 765,
      "ཧ": 766,
      "က": 767,
      "ဂ": 768,
      "င": 769,
      "စ": 770,
      "ဆ": 771,
      "ဇ": 772,
      "တ": 773,
      "န": 774,
      "ပ": 775,
      "ဗ": 776,
      "ဘ": 777,
      "မ": 778,
      "ယ": 779,
      "ရ": 780,
      "လ": 781,
      "ဝ": 782,
      "ဟ": 783,
      "အ": 784,
      "ာ": 785,
      "း": 786,
      "ျ": 787,
      "ြ": 788,
      "၁": 789,
      "၂": 790,
      "၇": 791,
      "၈": 792,
      "ა": 793,
      "ბ": 794,
      "გ": 795,
      "დ": 796,
      "ე": 797,
      "ვ": 798,
      "ზ": 799,
      "თ": 800,
      "ი": 801,
      "კ": 802,
      "ლ": 803,
      "მ": 804,
      "ნ": 805,
      "ო": 806,
      "პ": 807,
      "ჟ": 808,
      "რ": 809,
      "ს": 810,
      "ტ": 811,
      "უ": 812,
      "ფ": 813,
      "ქ": 814,
      "ღ": 815,
      "ყ": 816,
      "შ": 817,
      "ჩ": 818,
      "ც": 819,
      "ძ": 820,
      "წ": 821,
      "ჭ": 822,
      "ხ": 823,
      "ჯ": 824,
      "ჰ": 825,
      "ჱ": 826,
      "ჲ": 827,
      "ჳ": 828,
      "ჴ": 829,
      "ჵ": 830,
      "ჶ": 831,
      "ჷ": 832,
      "ჸ": 833,
      "ჹ": 834,
      "ჺ": 835,
      "჻": 836,
      "ᄀ": 837,
      "ᄁ": 838,
      "ᄂ": 839,
      "ᄃ": 840,
      "ᄄ": 841,
      "ᄅ": 842,
      "ᄆ": 843,
      "ᄇ": 844,
      "ᄈ": 845,
      "ᄉ": 846,
      "ᄊ": 847,
      "ᄋ": 848,
      "ᄌ": 849,
      "ᄎ": 850,
      "ᄏ": 851,
      "ᄐ": 852,
      "ᄑ": 853,
      "ᄒ": 854,
      "ᅡ": 855,
      "ᅢ": 856,
      "ᅣ": 857,
      "ᅥ": 858,
      "ᅦ": 859,
      "ᅧ": 860,
      "ᅨ": 861,
      "ᅩ": 862,
      "ᅪ": 863,
      "ᅫ": 864,
      "ᅬ": 865,
      "ᅭ": 866,
      "ᅮ": 867,
      "ᅯ": 868,
      "ᅱ": 869,
      "ᅲ": 870,
      "ᅳ": 871,
      "ᅴ": 872,
      "ᅵ": 873,
      "ᆨ": 874,
      "ᆫ": 875,
      "ᆮ": 876,
      "ᆯ": 877,
      "ᆰ": 878,
      "ᆷ": 879,
      "ᆸ": 880,
      "ᆺ": 881,
      "ᆻ": 882,
      "ᆼ": 883,
      "ᇂ": 884,
      "ሀ": 885,
      "ለ": 886,
      "ሐ": 887,
      "ሓ": 888,
      "ሕ": 889,
      "መ": 890,
      "ማ": 891,
      "ሥ": 892,
      "ረ": 893,
      "ር": 894,
      "ሰ": 895,
      "ስ": 896,
      "ቆ": 897,
      "ቈ": 898,
      "በ": 899,
      "ብ": 900,
      "ቲ": 901,
      "ታ": 902,
      "ት": 903,
      "ነ": 904,
      "ና": 905,
      "ን": 906,
      "ኖ": 907,
      "አ": 908,
      "ኢ": 909,
      "እ": 910,
      "ከ": 911,
      "ኲ": 912,
      "ዕ": 913,
      "ዘ": 914,
      "ዛ": 915,
      "የ": 916,
      "ያ": 917,
      "ይ": 918,
      "ዮ": 919,
      "ደ": 920,
      "ድ": 921,
      "ጅ": 922,
      "ገ": 923,
      "ጉ": 924,
      "ጵ": 925,
      "ፈ": 926,
      "ፍ": 927,
      "፡": 928,
      "ᏹ": 929,
      "ᐊ": 930,
      "ᑲ": 931,
      "ᒡ": 932,
      "ᓘ": 933,
      "ᚢ": 934,
      "ᚣ": 935,
      "ᚦ": 936,
      "ᚨ": 937,
      "ᚩ": 938,
      "ᚬ": 939,
      "ᚱ": 940,
      "ᚷ": 941,
      "ᚹ": 942,
      "ᚺ": 943,
      "ᚻ": 944,
      "ᚼ": 945,
      "ᚾ": 946,
      "ᛁ": 947,
      "ᛃ": 948,
      "ᛄ": 949,
      "ᛇ": 950,
      "ᛋ": 951,
      "ᛏ": 952,
      "ᛒ": 953,
      "ᛗ": 954,
      "ᛚ": 955,
      "ᛝ": 956,
      "ᛞ": 957,
      "ᛟ": 958,
      "ᛠ": 959,
      "ក": 960,
      "ខ": 961,
      "គ": 962,
      "ង": 963,
      "ច": 964,
      "ឆ": 965,
      "ជ": 966,
      "ញ": 967,
      "ដ": 968,
      "ឋ": 969,
      "ណ": 970,
      "ត": 971,
      "ថ": 972,
      "ទ": 973,
      "ធ": 974,
      "ន": 975,
      "ប": 976,
      "ព": 977,
      "ភ": 978,
      "ម": 979,
      "យ": 980,
      "រ": 981,
      "ល": 982,
      "វ": 983,
      "ស": 984,
      "ហ": 985,
      "អ": 986,
      "ឥ": 987,
      "ឪ": 988,
      "ឫ": 989,
      "ឯ": 990,
      "ា": 991,
      "ៀ": 992,
      "េ": 993,
      "ែ": 994,
      "ៃ": 995,
      "ោ": 996,
      "ៅ": 997,
      "ះ": 998,
      "ៈ": 999,
      "ᠠ": 1000,
      "ᠣ": 1001,
      "ᠨ": 1002,
      "ᠪ": 1003,
      "ᠮ": 1004,
      "ᠯ": 1005,
      "ᠰ": 1006,
      "ᠴ": 1007,
      "ᠵ": 1008,
      "ᠸ": 1009,
      "ᡝ": 1010,
      "ᡠ": 1011,
      "ᡥ": 1012,
      "ᡨ": 1013,
      "ᡳ": 1014,
      "ᡴ": 1015,
      "ᡵ": 1016,
      "ᴰ": 1017,
      "ᴷ": 1018,
      "ᴺ": 1019,
      "ᵀ": 1020,
      "ᵊ": 1021,
      "ᵑ": 1022,
      "ᵗ": 1023,
      "ᵘ": 1024,
      "ᵝ": 1025,
      "ᵻ": 1026,
      "ᵿ": 1027,
      "ᶑ": 1028,
      "ᶢ": 1029,
      "ᶦ": 1030,
      "ᶴ": 1031,
      "ᶷ": 1032,
      "᾿": 1033,
      "‐": 1034,
      "‑": 1035,
      "‒": 1036,
      "–": 1037,
      "—": 1038,
      "―": 1039,
      "‖": 1040,
      "‘": 1041,
      "’": 1042,
      "‚": 1043,
      "‛": 1044,
      "“": 1045,
      "”": 1046,
      "„": 1047,
      "‟": 1048,
      "†": 1049,
      "‡": 1050,
      "•": 1051,
      "…": 1052,
      "‰": 1053,
      "′": 1054,
      "″": 1055,
      "※": 1056,
      "‼": 1057,
      "‿": 1058,
      "⁄": 1059,
      "⁊": 1060,
      "⁰": 1061,
      "⁺": 1062,
      "ⁿ": 1063,
      "₁": 1064,
      "₂": 1065,
      "₃": 1066,
      "₄": 1067,
      "₡": 1068,
      "₣": 1069,
      "₤": 1070,
      "₦": 1071,
      "₧": 1072,
      "₨": 1073,
      "₩": 1074,
      "₫": 1075,
      "€": 1076,
      "₱": 1077,
      "₴": 1078,
      "₹": 1079,
      "ℂ": 1080,
      "℃": 1081,
      "ℓ": 1082,
      "ℕ": 1083,
      "№": 1084,
      "ℛ": 1085,
      "ℝ": 1086,
      "℞": 1087,
      "™": 1088,
      "ℤ": 1089,
      "℥": 1090,
      "ℵ": 1091,
      "⅓": 1092,
      "⅔": 1093,
      "⅙": 1094,
      "⅛": 1095,
      "⅜": 1096,
      "⅝": 1097,
      "⅞": 1098,
      "ⅱ": 1099,
      "←": 1100,
      "↑": 1101,
      "→": 1102,
      "↓": 1103,
      "↔": 1104,
      "↗": 1105,
      "↘": 1106,
      "↦": 1107,
      "↪": 1108,
      "↵": 1109,
      "⇄": 1110,
      "⇌": 1111,
      "⇒": 1112,
      "⇪": 1113,
      "∀": 1114,
      "∂": 1115,
      "∅": 1116,
      "∆": 1117,
      "∇": 1118,
      "∈": 1119,
      "∊": 1120,
      "∑": 1121,
      "−": 1122,
      "∕": 1123,
      "∖": 1124,
      "∗": 1125,
      "∘": 1126,
      "√": 1127,
      "∝": 1128,
      "∞": 1129,
      "∣": 1130,
      "∩": 1131,
      "∪": 1132,
      "∫": 1133,
      "∴": 1134,
      "∼": 1135,
      "≈": 1136,
      "≡": 1137,
      "≤": 1138,
      "≥": 1139,
      "≪": 1140,
      "≫": 1141,
      "≲": 1142,
      "⊂": 1143,
      "⊕": 1144,
      "⊗": 1145,
      "⊙": 1146,
      "⊞": 1147,
      "⊢": 1148,
      "⊣": 1149,
      "⊥": 1150,
      "⋅": 1151,
      "⋆": 1152,
      "⋯": 1153,
      "⌊": 1154,
      "⌋": 1155,
      "⌘": 1156,
      "①": 1157,
      "②": 1158,
      "③": 1159,
      "④": 1160,
      "⑤": 1161,
      "⑥": 1162,
      "⑦": 1163,
      "⑧": 1164,
      "─": 1165,
      "█": 1166,
      "▢": 1167,
      "▲": 1168,
      "▼": 1169,
      "○": 1170,
      "●": 1171,
      "◦": 1172,
      "☄": 1173,
      "★": 1174,
      "☆": 1175,
      "☉": 1176,
      "☧": 1177,
      "☫": 1178,
      "☭": 1179,
      "☽": 1180,
      "☾": 1181,
      "♀": 1182,
      "♂": 1183,
      "♄": 1184,
      "♅": 1185,
      "♆": 1186,
      "♇": 1187,
      "♈": 1188,
      "♉": 1189,
      "♠": 1190,
      "♣": 1191,
      "♥": 1192,
      "♦": 1193,
      "♩": 1194,
      "♪": 1195,
      "♭": 1196,
      "♮": 1197,
      "♯": 1198,
      "⚳": 1199,
      "⚴": 1200,
      "⚵": 1201,
      "⛢": 1202,
      "✡": 1203,
      "✱": 1204,
      "❄": 1205,
      "❅": 1206,
      "❆": 1207,
      "❤": 1208,
      "⟦": 1209,
      "⟧": 1210,
      "⟨": 1211,
      "⟩": 1212,
      "⥇": 1213,
      "⩽": 1214,
      "⫶": 1215,
      "ⱱ": 1216,
      "ⲁ": 1217,
      "ⲛ": 1218,
      "ⲥ": 1219,
      "ⲧ": 1220,
      "ⲩ": 1221,
      "ⲫ": 1222,
      "ⲱ": 1223,
      "ⴀ": 1224,
      "ⴂ": 1225,
      "ⴃ": 1226,
      "ⴈ": 1227,
      "ⴌ": 1228,
      "ⴕ": 1229,
      "ⴟ": 1230,
      "ⴰ": 1231,
      "ⴳ": 1232,
      "ⴷ": 1233,
      "ⴻ": 1234,
      "ⴼ": 1235,
      "ⴽ": 1236,
      "ⵃ": 1237,
      "ⵇ": 1238,
      "ⵉ": 1239,
      "ⵍ": 1240,
      "ⵎ": 1241,
      "ⵏ": 1242,
      "ⵓ": 1243,
      "ⵔ": 1244,
      "ⵕ": 1245,
      "ⵖ": 1246,
      "ⵙ": 1247,
      "ⵛ": 1248,
      "ⵜ": 1249,
      "ⵡ": 1250,
      "ⵢ": 1251,
      "ⵣ": 1252,
      "⸨": 1253,
      "⸩": 1254,
      "、": 1255,
      "。": 1256,
      "々": 1257,
      "〈": 1258,
      "〉": 1259,
      "《": 1260,
      "》": 1261,
      "「": 1262,
      "」": 1263,
      "『": 1264,
      "』": 1265,
      "【": 1266,
      "】": 1267,
      "〒": 1268,
      "〜": 1269,
      "あ": 1270,
      "ぃ": 1271,
      "い": 1272,
      "ぅ": 1273,
      "う": 1274,
      "ぇ": 1275,
      "え": 1276,
      "ぉ": 1277,
      "お": 1278,
      "か": 1279,
      "き": 1280,
      "く": 1281,
      "け": 1282,
      "こ": 1283,
      "さ": 1284,
      "し": 1285,
      "す": 1286,
      "せ": 1287,
      "そ": 1288,
      "た": 1289,
      "ち": 1290,
      "っ": 1291,
      "つ": 1292,
      "て": 1293,
      "と": 1294,
      "な": 1295,
      "に": 1296,
      "ぬ": 1297,
      "ね": 1298,
      "の": 1299,
      "は": 1300,
      "ひ": 1301,
      "ふ": 1302,
      "へ": 1303,
      "ほ": 1304,
      "ま": 1305,
      "み": 1306,
      "む": 1307,
      "め": 1308,
      "も": 1309,
      "ゃ": 1310,
      "や": 1311,
      "ゅ": 1312,
      "ゆ": 1313,
      "ょ": 1314,
      "よ": 1315,
      "ら": 1316,
      "り": 1317,
      "る": 1318,
      "れ": 1319,
      "ろ": 1320,
      "わ": 1321,
      "ゑ": 1322,
      "を": 1323,
      "ん": 1324,
      "ァ": 1325,
      "ア": 1326,
      "ィ": 1327,
      "イ": 1328,
      "ゥ": 1329,
      "ウ": 1330,
      "ェ": 1331,
      "エ": 1332,
      "ォ": 1333,
      "オ": 1334,
      "カ": 1335,
      "キ": 1336,
      "ク": 1337,
      "ケ": 1338,
      "コ": 1339,
      "サ": 1340,
      "シ": 1341,
      "ス": 1342,
      "セ": 1343,
      "ソ": 1344,
      "タ": 1345,
      "チ": 1346,
      "ッ": 1347,
      "ツ": 1348,
      "テ": 1349,
      "ト": 1350,
      "ナ": 1351,
      "ニ": 1352,
      "ヌ": 1353,
      "ネ": 1354,
      "ノ": 1355,
      "ハ": 1356,
      "ヒ": 1357,
      "フ": 1358,
      "ヘ": 1359,
      "ホ": 1360,
      "マ": 1361,
      "ミ": 1362,
      "ム": 1363,
      "メ": 1364,
      "モ": 1365,
      "ャ": 1366,
      "ヤ": 1367,
      "ュ": 1368,
      "ユ": 1369,
      "ョ": 1370,
      "ヨ": 1371,
      "ラ": 1372,
      "リ": 1373,
      "ル": 1374,
      "レ": 1375,
      "ロ": 1376,
      "ワ": 1377,
      "ヲ": 1378,
      "ン": 1379,
      "ヶ": 1380,
      "・": 1381,
      "ー": 1382,
      "一": 1383,
      "丁": 1384,
      "七": 1385,
      "万": 1386,
      "丈": 1387,
      "三": 1388,
      "上": 1389,
      "下": 1390,
      "不": 1391,
      "与": 1392,
      "丑": 1393,
      "且": 1394,
      "世": 1395,
      "丘": 1396,
      "丙": 1397,
      "东": 1398,
      "丝": 1399,
      "丞": 1400,
      "両": 1401,
      "丨": 1402,
      "个": 1403,
      "中": 1404,
      "丶": 1405,
      "丸": 1406,
      "丹": 1407,
      "为": 1408,
      "主": 1409,
      "丽": 1410,
      "丿": 1411,
      "乃": 1412,
      "久": 1413,
      "么": 1414,
      "义": 1415,
      "之": 1416,
      "乌": 1417,
      "乎": 1418,
      "乐": 1419,
      "乘": 1420,
      "乙": 1421,
      "乚": 1422,
      "乛": 1423,
      "九": 1424,
      "也": 1425,
      "习": 1426,
      "书": 1427,
      "乩": 1428,
      "买": 1429,
      "乱": 1430,
      "乳": 1431,
      "乾": 1432,
      "亀": 1433,
      "亅": 1434,
      "了": 1435,
      "予": 1436,
      "争": 1437,
      "事": 1438,
      "二": 1439,
      "云": 1440,
      "五": 1441,
      "井": 1442,
      "亚": 1443,
      "些": 1444,
      "亜": 1445,
      "亞": 1446,
      "亡": 1447,
      "交": 1448,
      "亦": 1449,
      "亨": 1450,
      "京": 1451,
      "亮": 1452,
      "亰": 1453,
      "人": 1454,
      "什": 1455,
      "仁": 1456,
      "仇": 1457,
      "今": 1458,
      "介": 1459,
      "仔": 1460,
      "仕": 1461,
      "他": 1462,
      "付": 1463,
      "仙": 1464,
      "代": 1465,
      "令": 1466,
      "以": 1467,
      "仪": 1468,
      "们": 1469,
      "仮": 1470,
      "仰": 1471,
      "仲": 1472,
      "件": 1473,
      "任": 1474,
      "份": 1475,
      "伊": 1476,
      "伏": 1477,
      "伐": 1478,
      "休": 1479,
      "会": 1480,
      "伝": 1481,
      "伟": 1482,
      "传": 1483,
      "伪": 1484,
      "伯": 1485,
      "伴": 1486,
      "伸": 1487,
      "似": 1488,
      "佃": 1489,
      "但": 1490,
      "位": 1491,
      "住": 1492,
      "佐": 1493,
      "佑": 1494,
      "体": 1495,
      "何": 1496,
      "余": 1497,
      "佛": 1498,
      "作": 1499,
      "你": 1500,
      "佳": 1501,
      "併": 1502,
      "使": 1503,
      "來": 1504,
      "例": 1505,
      "侍": 1506,
      "侗": 1507,
      "供": 1508,
      "依": 1509,
      "侠": 1510,
      "侨": 1511,
      "侬": 1512,
      "侯": 1513,
      "係": 1514,
      "促": 1515,
      "俄": 1516,
      "俊": 1517,
      "保": 1518,
      "信": 1519,
      "俭": 1520,
      "修": 1521,
      "俱": 1522,
      "俳": 1523,
      "倉": 1524,
      "個": 1525,
      "們": 1526,
      "候": 1527,
      "借": 1528,
      "倪": 1529,
      "倫": 1530,
      "倭": 1531,
      "偃": 1532,
      "假": 1533,
      "偏": 1534,
      "健": 1535,
      "側": 1536,
      "偵": 1537,
      "偽": 1538,
      "傀": 1539,
      "傅": 1540,
      "傑": 1541,
      "傘": 1542,
      "備": 1543,
      "催": 1544,
      "傭": 1545,
      "傳": 1546,
      "傷": 1547,
      "像": 1548,
      "僑": 1549,
      "僕": 1550,
      "僧": 1551,
      "儀": 1552,
      "億": 1553,
      "儒": 1554,
      "儚": 1555,
      "儡": 1556,
      "優": 1557,
      "儿": 1558,
      "允": 1559,
      "元": 1560,
      "充": 1561,
      "兆": 1562,
      "先": 1563,
      "光": 1564,
      "克": 1565,
      "免": 1566,
      "兒": 1567,
      "兔": 1568,
      "兜": 1569,
      "入": 1570,
      "內": 1571,
      "全": 1572,
      "兩": 1573,
      "八": 1574,
      "公": 1575,
      "六": 1576,
      "兰": 1577,
      "共": 1578,
      "关": 1579,
      "兵": 1580,
      "其": 1581,
      "具": 1582,
      "典": 1583,
      "养": 1584,
      "冀": 1585,
      "内": 1586,
      "円": 1587,
      "冉": 1588,
      "册": 1589,
      "再": 1590,
      "冒": 1591,
      "写": 1592,
      "军": 1593,
      "冠": 1594,
      "冥": 1595,
      "冫": 1596,
      "冬": 1597,
      "冯": 1598,
      "决": 1599,
      "冴": 1600,
      "冶": 1601,
      "冷": 1602,
      "净": 1603,
      "准": 1604,
      "凌": 1605,
      "凤": 1606,
      "処": 1607,
      "凪": 1608,
      "凯": 1609,
      "凰": 1610,
      "凱": 1611,
      "凶": 1612,
      "凹": 1613,
      "出": 1614,
      "刀": 1615,
      "刃": 1616,
      "分": 1617,
      "切": 1618,
      "刊": 1619,
      "划": 1620,
      "列": 1621,
      "刘": 1622,
      "初": 1623,
      "判": 1624,
      "別": 1625,
      "利": 1626,
      "别": 1627,
      "到": 1628,
      "制": 1629,
      "刷": 1630,
      "券": 1631,
      "刹": 1632,
      "刺": 1633,
      "刻": 1634,
      "則": 1635,
      "前": 1636,
      "剑": 1637,
      "剛": 1638,
      "剣": 1639,
      "剧": 1640,
      "剩": 1641,
      "副": 1642,
      "割": 1643,
      "創": 1644,
      "劃": 1645,
      "劇": 1646,
      "劉": 1647,
      "劍": 1648,
      "力": 1649,
      "办": 1650,
      "功": 1651,
      "加": 1652,
      "劣": 1653,
      "动": 1654,
      "助": 1655,
      "劳": 1656,
      "勃": 1657,
      "勅": 1658,
      "勇": 1659,
      "勒": 1660,
      "動": 1661,
      "勘": 1662,
      "務": 1663,
      "勝": 1664,
      "勞": 1665,
      "勢": 1666,
      "勳": 1667,
      "勾": 1668,
      "包": 1669,
      "化": 1670,
      "北": 1671,
      "匠": 1672,
      "匹": 1673,
      "区": 1674,
      "医": 1675,
      "區": 1676,
      "十": 1677,
      "千": 1678,
      "升": 1679,
      "午": 1680,
      "半": 1681,
      "华": 1682,
      "协": 1683,
      "卐": 1684,
      "卒": 1685,
      "卓": 1686,
      "協": 1687,
      "单": 1688,
      "卖": 1689,
      "南": 1690,
      "博": 1691,
      "卜": 1692,
      "占": 1693,
      "卡": 1694,
      "卢": 1695,
      "卦": 1696,
      "卫": 1697,
      "印": 1698,
      "危": 1699,
      "即": 1700,
      "却": 1701,
      "卸": 1702,
      "卿": 1703,
      "厂": 1704,
      "厄": 1705,
      "历": 1706,
      "厘": 1707,
      "厚": 1708,
      "原": 1709,
      "厥": 1710,
      "厦": 1711,
      "厩": 1712,
      "去": 1713,
      "县": 1714,
      "参": 1715,
      "參": 1716,
      "叉": 1717,
      "及": 1718,
      "友": 1719,
      "双": 1720,
      "反": 1721,
      "収": 1722,
      "发": 1723,
      "叔": 1724,
      "取": 1725,
      "受": 1726,
      "变": 1727,
      "叛": 1728,
      "叠": 1729,
      "叡": 1730,
      "叢": 1731,
      "口": 1732,
      "古": 1733,
      "句": 1734,
      "只": 1735,
      "叫": 1736,
      "召": 1737,
      "可": 1738,
      "台": 1739,
      "史": 1740,
      "右": 1741,
      "叶": 1742,
      "号": 1743,
      "司": 1744,
      "合": 1745,
      "吉": 1746,
      "同": 1747,
      "名": 1748,
      "后": 1749,
      "向": 1750,
      "吕": 1751,
      "君": 1752,
      "吞": 1753,
      "吟": 1754,
      "吧": 1755,
      "启": 1756,
      "吳": 1757,
      "吴": 1758,
      "吸": 1759,
      "吹": 1760,
      "吾": 1761,
      "呂": 1762,
      "呉": 1763,
      "告": 1764,
      "周": 1765,
      "呪": 1766,
      "味": 1767,
      "呼": 1768,
      "命": 1769,
      "咆": 1770,
      "和": 1771,
      "咖": 1772,
      "咙": 1773,
      "咫": 1774,
      "咲": 1775,
      "咸": 1776,
      "哀": 1777,
      "品": 1778,
      "哈": 1779,
      "哉": 1780,
      "响": 1781,
      "員": 1782,
      "哥": 1783,
      "哮": 1784,
      "哲": 1785,
      "唄": 1786,
      "唐": 1787,
      "唯": 1788,
      "唱": 1789,
      "商": 1790,
      "問": 1791,
      "啓": 1792,
      "啟": 1793,
      "啡": 1794,
      "善": 1795,
      "喇": 1796,
      "喋": 1797,
      "喚": 1798,
      "喜": 1799,
      "喝": 1800,
      "喬": 1801,
      "嘉": 1802,
      "嘘": 1803,
      "噛": 1804,
      "器": 1805,
      "嚣": 1806,
      "嚴": 1807,
      "囁": 1808,
      "囂": 1809,
      "囃": 1810,
      "囚": 1811,
      "四": 1812,
      "回": 1813,
      "因": 1814,
      "团": 1815,
      "団": 1816,
      "図": 1817,
      "国": 1818,
      "图": 1819,
      "圈": 1820,
      "國": 1821,
      "圍": 1822,
      "圏": 1823,
      "園": 1824,
      "圓": 1825,
      "圖": 1826,
      "土": 1827,
      "圣": 1828,
      "圧": 1829,
      "在": 1830,
      "地": 1831,
      "圻": 1832,
      "坂": 1833,
      "均": 1834,
      "坊": 1835,
      "坑": 1836,
      "块": 1837,
      "坚": 1838,
      "坝": 1839,
      "坡": 1840,
      "坤": 1841,
      "坪": 1842,
      "型": 1843,
      "垣": 1844,
      "城": 1845,
      "埔": 1846,
      "域": 1847,
      "執": 1848,
      "培": 1849,
      "基": 1850,
      "堀": 1851,
      "堂": 1852,
      "堅": 1853,
      "堆": 1854,
      "堡": 1855,
      "堤": 1856,
      "堯": 1857,
      "報": 1858,
      "場": 1859,
      "塊": 1860,
      "塔": 1861,
      "塘": 1862,
      "塚": 1863,
      "塞": 1864,
      "塩": 1865,
      "填": 1866,
      "塵": 1867,
      "境": 1868,
      "墓": 1869,
      "墙": 1870,
      "增": 1871,
      "壁": 1872,
      "壌": 1873,
      "壓": 1874,
      "壟": 1875,
      "壤": 1876,
      "士": 1877,
      "壬": 1878,
      "壮": 1879,
      "壯": 1880,
      "声": 1881,
      "壱": 1882,
      "売": 1883,
      "壳": 1884,
      "壷": 1885,
      "壽": 1886,
      "处": 1887,
      "备": 1888,
      "変": 1889,
      "复": 1890,
      "夏": 1891,
      "夕": 1892,
      "外": 1893,
      "多": 1894,
      "夜": 1895,
      "够": 1896,
      "夢": 1897,
      "夤": 1898,
      "大": 1899,
      "天": 1900,
      "太": 1901,
      "夫": 1902,
      "央": 1903,
      "失": 1904,
      "头": 1905,
      "夷": 1906,
      "奇": 1907,
      "奈": 1908,
      "奉": 1909,
      "奎": 1910,
      "奏": 1911,
      "奐": 1912,
      "契": 1913,
      "奔": 1914,
      "套": 1915,
      "奥": 1916,
      "奧": 1917,
      "奪": 1918,
      "女": 1919,
      "奴": 1920,
      "好": 1921,
      "如": 1922,
      "妃": 1923,
      "妇": 1924,
      "妍": 1925,
      "妖": 1926,
      "妙": 1927,
      "妮": 1928,
      "妹": 1929,
      "妻": 1930,
      "姉": 1931,
      "姊": 1932,
      "始": 1933,
      "姑": 1934,
      "委": 1935,
      "姚": 1936,
      "姥": 1937,
      "姦": 1938,
      "姫": 1939,
      "姬": 1940,
      "姿": 1941,
      "威": 1942,
      "娘": 1943,
      "娜": 1944,
      "婁": 1945,
      "婆": 1946,
      "婚": 1947,
      "婷": 1948,
      "嫁": 1949,
      "嬢": 1950,
      "嬴": 1951,
      "子": 1952,
      "孔": 1953,
      "字": 1954,
      "存": 1955,
      "孙": 1956,
      "孛": 1957,
      "孝": 1958,
      "孟": 1959,
      "季": 1960,
      "孤": 1961,
      "学": 1962,
      "孩": 1963,
      "孫": 1964,
      "孵": 1965,
      "學": 1966,
      "宁": 1967,
      "宅": 1968,
      "宇": 1969,
      "守": 1970,
      "安": 1971,
      "宋": 1972,
      "完": 1973,
      "宏": 1974,
      "宗": 1975,
      "官": 1976,
      "宙": 1977,
      "定": 1978,
      "宜": 1979,
      "宝": 1980,
      "实": 1981,
      "実": 1982,
      "客": 1983,
      "宣": 1984,
      "室": 1985,
      "宫": 1986,
      "宮": 1987,
      "宴": 1988,
      "宵": 1989,
      "家": 1990,
      "宸": 1991,
      "容": 1992,
      "宿": 1993,
      "寂": 1994,
      "寄": 1995,
      "密": 1996,
      "寇": 1997,
      "富": 1998,
      "寔": 1999,
      "寗": 2000,
      "寛": 2001,
      "寝": 2002,
      "寞": 2003,
      "察": 2004,
      "寧": 2005,
      "寨": 2006,
      "審": 2007,
      "寬": 2008,
      "寵": 2009,
      "寶": 2010,
      "寸": 2011,
      "对": 2012,
      "寺": 2013,
      "寻": 2014,
      "対": 2015,
      "寿": 2016,
      "封": 2017,
      "射": 2018,
      "将": 2019,
      "將": 2020,
      "尉": 2021,
      "尊": 2022,
      "尋": 2023,
      "對": 2024,
      "導": 2025,
      "小": 2026,
      "少": 2027,
      "尔": 2028,
      "尚": 2029,
      "尧": 2030,
      "就": 2031,
      "尸": 2032,
      "尹": 2033,
      "尺": 2034,
      "尼": 2035,
      "尽": 2036,
      "尾": 2037,
      "局": 2038,
      "居": 2039,
      "届": 2040,
      "屋": 2041,
      "屍": 2042,
      "屑": 2043,
      "展": 2044,
      "屠": 2045,
      "層": 2046,
      "屬": 2047,
      "屯": 2048,
      "山": 2049,
      "屿": 2050,
      "岐": 2051,
      "岑": 2052,
      "岚": 2053,
      "岛": 2054,
      "岡": 2055,
      "岩": 2056,
      "岬": 2057,
      "岭": 2058,
      "岳": 2059,
      "岸": 2060,
      "峰": 2061,
      "島": 2062,
      "崇": 2063,
      "崎": 2064,
      "崔": 2065,
      "崖": 2066,
      "嵐": 2067,
      "嶋": 2068,
      "嶺": 2069,
      "嶼": 2070,
      "巂": 2071,
      "巖": 2072,
      "川": 2073,
      "州": 2074,
      "巡": 2075,
      "工": 2076,
      "左": 2077,
      "巨": 2078,
      "巫": 2079,
      "差": 2080,
      "己": 2081,
      "巳": 2082,
      "巴": 2083,
      "巻": 2084,
      "币": 2085,
      "市": 2086,
      "布": 2087,
      "帆": 2088,
      "师": 2089,
      "希": 2090,
      "帕": 2091,
      "帖": 2092,
      "帝": 2093,
      "帥": 2094,
      "带": 2095,
      "師": 2096,
      "帮": 2097,
      "帰": 2098,
      "帶": 2099,
      "常": 2100,
      "幕": 2101,
      "幡": 2102,
      "幣": 2103,
      "干": 2104,
      "平": 2105,
      "年": 2106,
      "幸": 2107,
      "幻": 2108,
      "幽": 2109,
      "广": 2110,
      "庁": 2111,
      "広": 2112,
      "庄": 2113,
      "庆": 2114,
      "庇": 2115,
      "序": 2116,
      "库": 2117,
      "底": 2118,
      "庖": 2119,
      "店": 2120,
      "庙": 2121,
      "庚": 2122,
      "府": 2123,
      "度": 2124,
      "座": 2125,
      "庫": 2126,
      "庭": 2127,
      "庵": 2128,
      "康": 2129,
      "廉": 2130,
      "廊": 2131,
      "廖": 2132,
      "廟": 2133,
      "廣": 2134,
      "廬": 2135,
      "延": 2136,
      "廷": 2137,
      "建": 2138,
      "廻": 2139,
      "廿": 2140,
      "开": 2141,
      "弁": 2142,
      "式": 2143,
      "弐": 2144,
      "弓": 2145,
      "弔": 2146,
      "引": 2147,
      "弘": 2148,
      "弟": 2149,
      "张": 2150,
      "弥": 2151,
      "弦": 2152,
      "弧": 2153,
      "弱": 2154,
      "張": 2155,
      "強": 2156,
      "弹": 2157,
      "强": 2158,
      "弾": 2159,
      "彌": 2160,
      "当": 2161,
      "录": 2162,
      "彖": 2163,
      "彙": 2164,
      "形": 2165,
      "彦": 2166,
      "彩": 2167,
      "彪": 2168,
      "彬": 2169,
      "彭": 2170,
      "影": 2171,
      "役": 2172,
      "彼": 2173,
      "征": 2174,
      "径": 2175,
      "待": 2176,
      "律": 2177,
      "後": 2178,
      "徐": 2179,
      "徒": 2180,
      "得": 2181,
      "從": 2182,
      "御": 2183,
      "復": 2184,
      "微": 2185,
      "徳": 2186,
      "德": 2187,
      "徹": 2188,
      "徽": 2189,
      "心": 2190,
      "必": 2191,
      "忍": 2192,
      "志": 2193,
      "忘": 2194,
      "応": 2195,
      "忠": 2196,
      "快": 2197,
      "念": 2198,
      "怀": 2199,
      "怎": 2200,
      "怒": 2201,
      "怖": 2202,
      "思": 2203,
      "怡": 2204,
      "急": 2205,
      "性": 2206,
      "怨": 2207,
      "怪": 2208,
      "总": 2209,
      "恆": 2210,
      "恋": 2211,
      "恐": 2212,
      "恒": 2213,
      "恢": 2214,
      "恥": 2215,
      "恩": 2216,
      "恭": 2217,
      "息": 2218,
      "恵": 2219,
      "恼": 2220,
      "悔": 2221,
      "悟": 2222,
      "悠": 2223,
      "悦": 2224,
      "悪": 2225,
      "悫": 2226,
      "悲": 2227,
      "悼": 2228,
      "情": 2229,
      "惑": 2230,
      "惟": 2231,
      "惠": 2232,
      "惡": 2233,
      "想": 2234,
      "愁": 2235,
      "愍": 2236,
      "意": 2237,
      "愚": 2238,
      "愛": 2239,
      "感": 2240,
      "愽": 2241,
      "慈": 2242,
      "態": 2243,
      "慎": 2244,
      "慧": 2245,
      "慰": 2246,
      "慶": 2247,
      "憂": 2248,
      "憎": 2249,
      "憑": 2250,
      "憲": 2251,
      "憶": 2252,
      "應": 2253,
      "懍": 2254,
      "懷": 2255,
      "戈": 2256,
      "戊": 2257,
      "戎": 2258,
      "成": 2259,
      "我": 2260,
      "战": 2261,
      "戦": 2262,
      "戯": 2263,
      "戰": 2264,
      "戴": 2265,
      "户": 2266,
      "戸": 2267,
      "房": 2268,
      "所": 2269,
      "扁": 2270,
      "扇": 2271,
      "扈": 2272,
      "扉": 2273,
      "手": 2274,
      "才": 2275,
      "打": 2276,
      "托": 2277,
      "扶": 2278,
      "找": 2279,
      "承": 2280,
      "技": 2281,
      "抄": 2282,
      "抓": 2283,
      "投": 2284,
      "抜": 2285,
      "択": 2286,
      "护": 2287,
      "报": 2288,
      "披": 2289,
      "抱": 2290,
      "抵": 2291,
      "担": 2292,
      "拉": 2293,
      "拍": 2294,
      "拏": 2295,
      "拐": 2296,
      "拖": 2297,
      "拘": 2298,
      "招": 2299,
      "拜": 2300,
      "拟": 2301,
      "拥": 2302,
      "括": 2303,
      "拱": 2304,
      "拳": 2305,
      "拾": 2306,
      "持": 2307,
      "挂": 2308,
      "指": 2309,
      "挑": 2310,
      "挥": 2311,
      "振": 2312,
      "据": 2313,
      "捷": 2314,
      "授": 2315,
      "掛": 2316,
      "採": 2317,
      "探": 2318,
      "控": 2319,
      "掲": 2320,
      "描": 2321,
      "提": 2322,
      "揚": 2323,
      "換": 2324,
      "援": 2325,
      "揺": 2326,
      "摂": 2327,
      "摩": 2328,
      "摸": 2329,
      "撃": 2330,
      "撒": 2331,
      "撞": 2332,
      "播": 2333,
      "撲": 2334,
      "操": 2335,
      "攝": 2336,
      "支": 2337,
      "收": 2338,
      "改": 2339,
      "攻": 2340,
      "放": 2341,
      "政": 2342,
      "故": 2343,
      "敏": 2344,
      "救": 2345,
      "教": 2346,
      "敢": 2347,
      "散": 2348,
      "敦": 2349,
      "敬": 2350,
      "数": 2351,
      "敵": 2352,
      "敷": 2353,
      "數": 2354,
      "文": 2355,
      "斉": 2356,
      "斎": 2357,
      "斗": 2358,
      "料": 2359,
      "斜": 2360,
      "斤": 2361,
      "斩": 2362,
      "斬": 2363,
      "断": 2364,
      "斯": 2365,
      "新": 2366,
      "方": 2367,
      "於": 2368,
      "施": 2369,
      "旅": 2370,
      "旋": 2371,
      "族": 2372,
      "旗": 2373,
      "无": 2374,
      "日": 2375,
      "旦": 2376,
      "旧": 2377,
      "早": 2378,
      "旭": 2379,
      "时": 2380,
      "旺": 2381,
      "昂": 2382,
      "昇": 2383,
      "昌": 2384,
      "明": 2385,
      "昏": 2386,
      "易": 2387,
      "昔": 2388,
      "星": 2389,
      "映": 2390,
      "春": 2391,
      "昭": 2392,
      "是": 2393,
      "昼": 2394,
      "時": 2395,
      "晉": 2396,
      "晋": 2397,
      "晒": 2398,
      "普": 2399,
      "景": 2400,
      "晴": 2401,
      "晶": 2402,
      "智": 2403,
      "暁": 2404,
      "暂": 2405,
      "暖": 2406,
      "暗": 2407,
      "暦": 2408,
      "暮": 2409,
      "暴": 2410,
      "曆": 2411,
      "曜": 2412,
      "曦": 2413,
      "曲": 2414,
      "更": 2415,
      "書": 2416,
      "曹": 2417,
      "曼": 2418,
      "曾": 2419,
      "最": 2420,
      "會": 2421,
      "月": 2422,
      "有": 2423,
      "朋": 2424,
      "服": 2425,
      "朏": 2426,
      "朔": 2427,
      "朗": 2428,
      "望": 2429,
      "朝": 2430,
      "期": 2431,
      "朧": 2432,
      "木": 2433,
      "未": 2434,
      "末": 2435,
      "本": 2436,
      "札": 2437,
      "朱": 2438,
      "朴": 2439,
      "朵": 2440,
      "机": 2441,
      "朽": 2442,
      "杀": 2443,
      "杂": 2444,
      "权": 2445,
      "李": 2446,
      "杏": 2447,
      "材": 2448,
      "村": 2449,
      "杖": 2450,
      "杜": 2451,
      "束": 2452,
      "条": 2453,
      "来": 2454,
      "杨": 2455,
      "杯": 2456,
      "東": 2457,
      "杲": 2458,
      "松": 2459,
      "板": 2460,
      "极": 2461,
      "析": 2462,
      "林": 2463,
      "枚": 2464,
      "果": 2465,
      "枝": 2466,
      "枭": 2467,
      "枯": 2468,
      "架": 2469,
      "柆": 2470,
      "柏": 2471,
      "柔": 2472,
      "柚": 2473,
      "柩": 2474,
      "柱": 2475,
      "柳": 2476,
      "柴": 2477,
      "査": 2478,
      "栄": 2479,
      "标": 2480,
      "栈": 2481,
      "树": 2482,
      "栖": 2483,
      "栗": 2484,
      "栞": 2485,
      "校": 2486,
      "株": 2487,
      "样": 2488,
      "核": 2489,
      "根": 2490,
      "格": 2491,
      "栽": 2492,
      "栾": 2493,
      "桀": 2494,
      "桂": 2495,
      "桃": 2496,
      "案": 2497,
      "桎": 2498,
      "桐": 2499,
      "桑": 2500,
      "桓": 2501,
      "桜": 2502,
      "桥": 2503,
      "桧": 2504,
      "梁": 2505,
      "梅": 2506,
      "梏": 2507,
      "梓": 2508,
      "條": 2509,
      "梦": 2510,
      "梨": 2511,
      "梭": 2512,
      "梯": 2513,
      "械": 2514,
      "梵": 2515,
      "梶": 2516,
      "棋": 2517,
      "棍": 2518,
      "棗": 2519,
      "棘": 2520,
      "棚": 2521,
      "棟": 2522,
      "森": 2523,
      "棲": 2524,
      "棵": 2525,
      "棺": 2526,
      "椅": 2527,
      "植": 2528,
      "椎": 2529,
      "椒": 2530,
      "椛": 2531,
      "検": 2532,
      "椰": 2533,
      "椿": 2534,
      "楊": 2535,
      "楚": 2536,
      "楠": 2537,
      "業": 2538,
      "楯": 2539,
      "極": 2540,
      "楼": 2541,
      "楽": 2542,
      "概": 2543,
      "榆": 2544,
      "榊": 2545,
      "榔": 2546,
      "榛": 2547,
      "榮": 2548,
      "榴": 2549,
      "槐": 2550,
      "様": 2551,
      "槤": 2552,
      "槻": 2553,
      "樂": 2554,
      "樉": 2555,
      "樊": 2556,
      "樓": 2557,
      "樗": 2558,
      "標": 2559,
      "樛": 2560,
      "模": 2561,
      "権": 2562,
      "横": 2563,
      "樱": 2564,
      "樸": 2565,
      "樹": 2566,
      "橋": 2567,
      "橘": 2568,
      "橚": 2569,
      "機": 2570,
      "橫": 2571,
      "橿": 2572,
      "檀": 2573,
      "檜": 2574,
      "檳": 2575,
      "檻": 2576,
      "櫓": 2577,
      "櫻": 2578,
      "權": 2579,
      "欒": 2580,
      "欠": 2581,
      "次": 2582,
      "欣": 2583,
      "欲": 2584,
      "欽": 2585,
      "歌": 2586,
      "歓": 2587,
      "歡": 2588,
      "止": 2589,
      "正": 2590,
      "步": 2591,
      "武": 2592,
      "歩": 2593,
      "歪": 2594,
      "歲": 2595,
      "歳": 2596,
      "歴": 2597,
      "歷": 2598,
      "歸": 2599,
      "死": 2600,
      "殊": 2601,
      "残": 2602,
      "段": 2603,
      "殺": 2604,
      "殻": 2605,
      "殿": 2606,
      "毅": 2607,
      "母": 2608,
      "毎": 2609,
      "每": 2610,
      "比": 2611,
      "毕": 2612,
      "毘": 2613,
      "毛": 2614,
      "毫": 2615,
      "毬": 2616,
      "氏": 2617,
      "民": 2618,
      "气": 2619,
      "気": 2620,
      "氣": 2621,
      "水": 2622,
      "氷": 2623,
      "永": 2624,
      "氾": 2625,
      "汇": 2626,
      "汉": 2627,
      "汐": 2628,
      "汗": 2629,
      "汝": 2630,
      "江": 2631,
      "池": 2632,
      "汤": 2633,
      "汪": 2634,
      "汰": 2635,
      "汶": 2636,
      "決": 2637,
      "汽": 2638,
      "沂": 2639,
      "沃": 2640,
      "沈": 2641,
      "沉": 2642,
      "沌": 2643,
      "沐": 2644,
      "沒": 2645,
      "沖": 2646,
      "沙": 2647,
      "沛": 2648,
      "没": 2649,
      "沢": 2650,
      "沫": 2651,
      "河": 2652,
      "沸": 2653,
      "油": 2654,
      "治": 2655,
      "沼": 2656,
      "沽": 2657,
      "泉": 2658,
      "泊": 2659,
      "法": 2660,
      "泗": 2661,
      "泡": 2662,
      "波": 2663,
      "泣": 2664,
      "泥": 2665,
      "注": 2666,
      "泰": 2667,
      "泾": 2668,
      "洁": 2669,
      "洋": 2670,
      "洛": 2671,
      "洞": 2672,
      "津": 2673,
      "洪": 2674,
      "洲": 2675,
      "活": 2676,
      "派": 2677,
      "流": 2678,
      "浅": 2679,
      "浙": 2680,
      "浚": 2681,
      "浜": 2682,
      "浦": 2683,
      "浩": 2684,
      "浪": 2685,
      "浮": 2686,
      "海": 2687,
      "消": 2688,
      "涙": 2689,
      "润": 2690,
      "涵": 2691,
      "涼": 2692,
      "淇": 2693,
      "淑": 2694,
      "淘": 2695,
      "淡": 2696,
      "淨": 2697,
      "深": 2698,
      "淳": 2699,
      "淵": 2700,
      "淹": 2701,
      "添": 2702,
      "清": 2703,
      "渊": 2704,
      "渚": 2705,
      "減": 2706,
      "渠": 2707,
      "渡": 2708,
      "渣": 2709,
      "渥": 2710,
      "渦": 2711,
      "温": 2712,
      "測": 2713,
      "港": 2714,
      "游": 2715,
      "渾": 2716,
      "湊": 2717,
      "湖": 2718,
      "湯": 2719,
      "湾": 2720,
      "満": 2721,
      "源": 2722,
      "準": 2723,
      "溜": 2724,
      "溢": 2725,
      "溪": 2726,
      "溫": 2727,
      "溶": 2728,
      "滅": 2729,
      "滋": 2730,
      "滑": 2731,
      "滨": 2732,
      "滿": 2733,
      "漁": 2734,
      "漂": 2735,
      "漆": 2736,
      "漏": 2737,
      "漠": 2738,
      "漢": 2739,
      "漫": 2740,
      "漳": 2741,
      "漸": 2742,
      "潘": 2743,
      "潜": 2744,
      "潤": 2745,
      "澄": 2746,
      "澤": 2747,
      "澪": 2748,
      "激": 2749,
      "濃": 2750,
      "濞": 2751,
      "濟": 2752,
      "瀛": 2753,
      "瀬": 2754,
      "灣": 2755,
      "火": 2756,
      "灯": 2757,
      "灰": 2758,
      "灵": 2759,
      "灶": 2760,
      "灼": 2761,
      "災": 2762,
      "灾": 2763,
      "炎": 2764,
      "炬": 2765,
      "炮": 2766,
      "炯": 2767,
      "炷": 2768,
      "炸": 2769,
      "点": 2770,
      "為": 2771,
      "炼": 2772,
      "烈": 2773,
      "烏": 2774,
      "烙": 2775,
      "烟": 2776,
      "烦": 2777,
      "烧": 2778,
      "焉": 2779,
      "焔": 2780,
      "無": 2781,
      "焦": 2782,
      "然": 2783,
      "焼": 2784,
      "煌": 2785,
      "煙": 2786,
      "煜": 2787,
      "照": 2788,
      "煩": 2789,
      "煮": 2790,
      "熊": 2791,
      "熔": 2792,
      "熙": 2793,
      "熟": 2794,
      "熱": 2795,
      "燃": 2796,
      "燈": 2797,
      "燕": 2798,
      "營": 2799,
      "爆": 2800,
      "爪": 2801,
      "爭": 2802,
      "爱": 2803,
      "爲": 2804,
      "爵": 2805,
      "父": 2806,
      "爺": 2807,
      "爻": 2808,
      "爽": 2809,
      "爾": 2810,
      "片": 2811,
      "版": 2812,
      "牌": 2813,
      "牙": 2814,
      "牛": 2815,
      "牡": 2816,
      "牢": 2817,
      "牧": 2818,
      "物": 2819,
      "牵": 2820,
      "特": 2821,
      "犖": 2822,
      "犬": 2823,
      "犯": 2824,
      "狀": 2825,
      "狂": 2826,
      "狐": 2827,
      "狗": 2828,
      "狛": 2829,
      "狡": 2830,
      "狩": 2831,
      "独": 2832,
      "狭": 2833,
      "狱": 2834,
      "狸": 2835,
      "狼": 2836,
      "猛": 2837,
      "猩": 2838,
      "猪": 2839,
      "猫": 2840,
      "献": 2841,
      "猿": 2842,
      "獄": 2843,
      "獅": 2844,
      "獣": 2845,
      "獵": 2846,
      "獻": 2847,
      "玄": 2848,
      "玉": 2849,
      "王": 2850,
      "玖": 2851,
      "玩": 2852,
      "玲": 2853,
      "珂": 2854,
      "珍": 2855,
      "珙": 2856,
      "珠": 2857,
      "現": 2858,
      "球": 2859,
      "理": 2860,
      "琦": 2861,
      "琪": 2862,
      "琬": 2863,
      "琮": 2864,
      "琴": 2865,
      "瑋": 2866,
      "瑙": 2867,
      "瑜": 2868,
      "瑞": 2869,
      "瑠": 2870,
      "瑣": 2871,
      "瑪": 2872,
      "瑾": 2873,
      "璉": 2874,
      "環": 2875,
      "璽": 2876,
      "瓊": 2877,
      "瓜": 2878,
      "瓢": 2879,
      "瓦": 2880,
      "瓩": 2881,
      "瓷": 2882,
      "甘": 2883,
      "甜": 2884,
      "生": 2885,
      "產": 2886,
      "産": 2887,
      "用": 2888,
      "甫": 2889,
      "田": 2890,
      "由": 2891,
      "甲": 2892,
      "申": 2893,
      "男": 2894,
      "町": 2895,
      "画": 2896,
      "甽": 2897,
      "界": 2898,
      "畑": 2899,
      "留": 2900,
      "畜": 2901,
      "畢": 2902,
      "略": 2903,
      "番": 2904,
      "畫": 2905,
      "異": 2906,
      "疆": 2907,
      "疾": 2908,
      "病": 2909,
      "症": 2910,
      "痘": 2911,
      "痛": 2912,
      "痴": 2913,
      "瘡": 2914,
      "瘤": 2915,
      "発": 2916,
      "登": 2917,
      "發": 2918,
      "白": 2919,
      "百": 2920,
      "的": 2921,
      "皇": 2922,
      "皙": 2923,
      "皮": 2924,
      "皿": 2925,
      "盆": 2926,
      "盈": 2927,
      "益": 2928,
      "盏": 2929,
      "盐": 2930,
      "监": 2931,
      "盒": 2932,
      "盗": 2933,
      "盘": 2934,
      "盛": 2935,
      "盟": 2936,
      "監": 2937,
      "盤": 2938,
      "盧": 2939,
      "目": 2940,
      "直": 2941,
      "相": 2942,
      "盼": 2943,
      "省": 2944,
      "看": 2945,
      "県": 2946,
      "眞": 2947,
      "真": 2948,
      "眼": 2949,
      "着": 2950,
      "督": 2951,
      "瞬": 2952,
      "瞳": 2953,
      "矢": 2954,
      "知": 2955,
      "矩": 2956,
      "短": 2957,
      "矮": 2958,
      "矯": 2959,
      "石": 2960,
      "砂": 2961,
      "砍": 2962,
      "研": 2963,
      "砖": 2964,
      "砲": 2965,
      "破": 2966,
      "硕": 2967,
      "硝": 2968,
      "硨": 2969,
      "碍": 2970,
      "碗": 2971,
      "碩": 2972,
      "確": 2973,
      "碼": 2974,
      "磁": 2975,
      "磅": 2976,
      "磐": 2977,
      "磨": 2978,
      "磯": 2979,
      "磲": 2980,
      "礁": 2981,
      "礎": 2982,
      "礮": 2983,
      "示": 2984,
      "礼": 2985,
      "社": 2986,
      "祀": 2987,
      "祈": 2988,
      "祐": 2989,
      "祖": 2990,
      "祚": 2991,
      "神": 2992,
      "祠": 2993,
      "祥": 2994,
      "票": 2995,
      "祭": 2996,
      "祺": 2997,
      "祿": 2998,
      "禁": 2999,
      "禄": 3000,
      "禎": 3001,
      "福": 3002,
      "禦": 3003,
      "禮": 3004,
      "禰": 3005,
      "禺": 3006,
      "禾": 3007,
      "秀": 3008,
      "私": 3009,
      "秋": 3010,
      "科": 3011,
      "秒": 3012,
      "秘": 3013,
      "租": 3014,
      "秤": 3015,
      "秦": 3016,
      "移": 3017,
      "程": 3018,
      "稔": 3019,
      "稚": 3020,
      "種": 3021,
      "稲": 3022,
      "稷": 3023,
      "稽": 3024,
      "穂": 3025,
      "穌": 3026,
      "積": 3027,
      "穎": 3028,
      "穗": 3029,
      "穢": 3030,
      "究": 3031,
      "空": 3032,
      "突": 3033,
      "窓": 3034,
      "窗": 3035,
      "窟": 3036,
      "竇": 3037,
      "立": 3038,
      "站": 3039,
      "竜": 3040,
      "章": 3041,
      "童": 3042,
      "端": 3043,
      "竹": 3044,
      "竺": 3045,
      "笑": 3046,
      "笔": 3047,
      "笛": 3048,
      "笠": 3049,
      "符": 3050,
      "笨": 3051,
      "第": 3052,
      "笹": 3053,
      "筆": 3054,
      "等": 3055,
      "筋": 3056,
      "筍": 3057,
      "筐": 3058,
      "筑": 3059,
      "答": 3060,
      "策": 3061,
      "筹": 3062,
      "箇": 3063,
      "箋": 3064,
      "算": 3065,
      "管": 3066,
      "箪": 3067,
      "箭": 3068,
      "箱": 3069,
      "節": 3070,
      "範": 3071,
      "篇": 3072,
      "篋": 3073,
      "篚": 3074,
      "篤": 3075,
      "簡": 3076,
      "簿": 3077,
      "籃": 3078,
      "籌": 3079,
      "籍": 3080,
      "籠": 3081,
      "米": 3082,
      "籵": 3083,
      "粁": 3084,
      "粉": 3085,
      "粍": 3086,
      "粟": 3087,
      "粥": 3088,
      "粨": 3089,
      "精": 3090,
      "糊": 3091,
      "糎": 3092,
      "糖": 3093,
      "糸": 3094,
      "系": 3095,
      "紀": 3096,
      "約": 3097,
      "紅": 3098,
      "紋": 3099,
      "納": 3100,
      "純": 3101,
      "紘": 3102,
      "紙": 3103,
      "級": 3104,
      "素": 3105,
      "紡": 3106,
      "紫": 3107,
      "細": 3108,
      "紹": 3109,
      "紺": 3110,
      "終": 3111,
      "組": 3112,
      "絆": 3113,
      "経": 3114,
      "結": 3115,
      "絡": 3116,
      "給": 3117,
      "統": 3118,
      "絵": 3119,
      "絶": 3120,
      "綁": 3121,
      "經": 3122,
      "継": 3123,
      "続": 3124,
      "綜": 3125,
      "綠": 3126,
      "維": 3127,
      "綯": 3128,
      "綱": 3129,
      "網": 3130,
      "綸": 3131,
      "綺": 3132,
      "綾": 3133,
      "緋": 3134,
      "総": 3135,
      "緑": 3136,
      "緒": 3137,
      "線": 3138,
      "締": 3139,
      "編": 3140,
      "緩": 3141,
      "緬": 3142,
      "緯": 3143,
      "縄": 3144,
      "縊": 3145,
      "縣": 3146,
      "總": 3147,
      "繋": 3148,
      "織": 3149,
      "繹": 3150,
      "繼": 3151,
      "續": 3152,
      "红": 3153,
      "级": 3154,
      "纪": 3155,
      "纯": 3156,
      "纲": 3157,
      "纵": 3158,
      "线": 3159,
      "组": 3160,
      "绅": 3161,
      "细": 3162,
      "终": 3163,
      "绍": 3164,
      "经": 3165,
      "给": 3166,
      "统": 3167,
      "继": 3168,
      "绮": 3169,
      "维": 3170,
      "综": 3171,
      "缽": 3172,
      "网": 3173,
      "罗": 3174,
      "罠": 3175,
      "罪": 3176,
      "置": 3177,
      "罰": 3178,
      "罸": 3179,
      "羅": 3180,
      "羊": 3181,
      "美": 3182,
      "群": 3183,
      "義": 3184,
      "羽": 3185,
      "翁": 3186,
      "習": 3187,
      "翔": 3188,
      "翘": 3189,
      "翠": 3190,
      "翡": 3191,
      "翱": 3192,
      "翹": 3193,
      "翻": 3194,
      "翼": 3195,
      "老": 3196,
      "考": 3197,
      "者": 3198,
      "耆": 3199,
      "而": 3200,
      "耕": 3201,
      "耳": 3202,
      "耶": 3203,
      "耿": 3204,
      "聃": 3205,
      "联": 3206,
      "聖": 3207,
      "聘": 3208,
      "聚": 3209,
      "聞": 3210,
      "聡": 3211,
      "聯": 3212,
      "聰": 3213,
      "聲": 3214,
      "職": 3215,
      "肃": 3216,
      "肉": 3217,
      "肖": 3218,
      "肚": 3219,
      "股": 3220,
      "肥": 3221,
      "肩": 3222,
      "育": 3223,
      "背": 3224,
      "胞": 3225,
      "胠": 3226,
      "胡": 3227,
      "胤": 3228,
      "胴": 3229,
      "胸": 3230,
      "能": 3231,
      "脂": 3232,
      "脇": 3233,
      "脈": 3234,
      "脉": 3235,
      "脚": 3236,
      "脩": 3237,
      "脱": 3238,
      "脳": 3239,
      "腎": 3240,
      "腐": 3241,
      "腰": 3242,
      "腹": 3243,
      "腿": 3244,
      "膀": 3245,
      "膺": 3246,
      "臂": 3247,
      "臘": 3248,
      "臚": 3249,
      "臣": 3250,
      "臨": 3251,
      "自": 3252,
      "臭": 3253,
      "至": 3254,
      "致": 3255,
      "臺": 3256,
      "與": 3257,
      "興": 3258,
      "舍": 3259,
      "舎": 3260,
      "舞": 3261,
      "舟": 3262,
      "航": 3263,
      "船": 3264,
      "艦": 3265,
      "良": 3266,
      "色": 3267,
      "艳": 3268,
      "艶": 3269,
      "艺": 3270,
      "节": 3271,
      "芒": 3272,
      "芙": 3273,
      "芝": 3274,
      "芥": 3275,
      "芦": 3276,
      "芬": 3277,
      "芭": 3278,
      "芮": 3279,
      "芯": 3280,
      "花": 3281,
      "芳": 3282,
      "芸": 3283,
      "芹": 3284,
      "芽": 3285,
      "苏": 3286,
      "苑": 3287,
      "苗": 3288,
      "苣": 3289,
      "若": 3290,
      "英": 3291,
      "苺": 3292,
      "茂": 3293,
      "范": 3294,
      "茅": 3295,
      "茜": 3296,
      "茶": 3297,
      "茸": 3298,
      "草": 3299,
      "荊": 3300,
      "荒": 3301,
      "荔": 3302,
      "荘": 3303,
      "荥": 3304,
      "荪": 3305,
      "荫": 3306,
      "药": 3307,
      "荷": 3308,
      "荻": 3309,
      "荼": 3310,
      "莉": 3311,
      "莊": 3312,
      "莎": 3313,
      "莘": 3314,
      "莞": 3315,
      "莫": 3316,
      "莱": 3317,
      "莲": 3318,
      "莴": 3319,
      "菇": 3320,
      "菉": 3321,
      "菊": 3322,
      "菜": 3323,
      "華": 3324,
      "菱": 3325,
      "菲": 3326,
      "萌": 3327,
      "萍": 3328,
      "萝": 3329,
      "营": 3330,
      "萧": 3331,
      "萨": 3332,
      "萬": 3333,
      "落": 3334,
      "葆": 3335,
      "葉": 3336,
      "著": 3337,
      "葛": 3338,
      "董": 3339,
      "葦": 3340,
      "葫": 3341,
      "葵": 3342,
      "蒙": 3343,
      "蒭": 3344,
      "蒲": 3345,
      "蒼": 3346,
      "蒿": 3347,
      "蓀": 3348,
      "蓑": 3349,
      "蓝": 3350,
      "蓮": 3351,
      "蔡": 3352,
      "蔭": 3353,
      "蔵": 3354,
      "蕃": 3355,
      "蕉": 3356,
      "蕨": 3357,
      "蕩": 3358,
      "蕭": 3359,
      "薇": 3360,
      "薊": 3361,
      "薔": 3362,
      "薙": 3363,
      "薛": 3364,
      "薩": 3365,
      "薫": 3366,
      "薯": 3367,
      "藍": 3368,
      "藏": 3369,
      "藕": 3370,
      "藝": 3371,
      "藤": 3372,
      "藥": 3373,
      "藩": 3374,
      "藻": 3375,
      "蘄": 3376,
      "蘅": 3377,
      "蘇": 3378,
      "蘑": 3379,
      "蘭": 3380,
      "蘿": 3381,
      "虎": 3382,
      "虐": 3383,
      "虔": 3384,
      "處": 3385,
      "虚": 3386,
      "虛": 3387,
      "號": 3388,
      "虫": 3389,
      "虹": 3390,
      "蛇": 3391,
      "蛍": 3392,
      "蛙": 3393,
      "蛭": 3394,
      "蜃": 3395,
      "蜡": 3396,
      "蝉": 3397,
      "蝕": 3398,
      "蝴": 3399,
      "蝶": 3400,
      "融": 3401,
      "螺": 3402,
      "蟲": 3403,
      "蠕": 3404,
      "蠻": 3405,
      "血": 3406,
      "衆": 3407,
      "行": 3408,
      "術": 3409,
      "街": 3410,
      "衙": 3411,
      "衛": 3412,
      "衝": 3413,
      "衡": 3414,
      "衢": 3415,
      "衣": 3416,
      "补": 3417,
      "表": 3418,
      "袁": 3419,
      "袈": 3420,
      "袖": 3421,
      "被": 3422,
      "裁": 3423,
      "裂": 3424,
      "装": 3425,
      "裏": 3426,
      "裔": 3427,
      "裕": 3428,
      "補": 3429,
      "裝": 3430,
      "裟": 3431,
      "裳": 3432,
      "裸": 3433,
      "製": 3434,
      "褒": 3435,
      "襄": 3436,
      "襟": 3437,
      "襲": 3438,
      "西": 3439,
      "要": 3440,
      "覇": 3441,
      "見": 3442,
      "規": 3443,
      "視": 3444,
      "覚": 3445,
      "親": 3446,
      "観": 3447,
      "覺": 3448,
      "觀": 3449,
      "观": 3450,
      "角": 3451,
      "解": 3452,
      "触": 3453,
      "觳": 3454,
      "言": 3455,
      "計": 3456,
      "記": 3457,
      "設": 3458,
      "許": 3459,
      "訳": 3460,
      "証": 3461,
      "詔": 3462,
      "詞": 3463,
      "詠": 3464,
      "試": 3465,
      "詩": 3466,
      "話": 3467,
      "誌": 3468,
      "誐": 3469,
      "誒": 3470,
      "誓": 3471,
      "誕": 3472,
      "誘": 3473,
      "語": 3474,
      "誠": 3475,
      "誡": 3476,
      "誦": 3477,
      "說": 3478,
      "説": 3479,
      "読": 3480,
      "誰": 3481,
      "課": 3482,
      "調": 3483,
      "談": 3484,
      "論": 3485,
      "諭": 3486,
      "諷": 3487,
      "諸": 3488,
      "謀": 3489,
      "謁": 3490,
      "謎": 3491,
      "謙": 3492,
      "講": 3493,
      "謝": 3494,
      "謡": 3495,
      "譌": 3496,
      "識": 3497,
      "譚": 3498,
      "譜": 3499,
      "警": 3500,
      "議": 3501,
      "護": 3502,
      "讀": 3503,
      "變": 3504,
      "讐": 3505,
      "讓": 3506,
      "计": 3507,
      "让": 3508,
      "议": 3509,
      "许": 3510,
      "论": 3511,
      "讼": 3512,
      "诉": 3513,
      "词": 3514,
      "诗": 3515,
      "诚": 3516,
      "话": 3517,
      "语": 3518,
      "诶": 3519,
      "请": 3520,
      "诺": 3521,
      "读": 3522,
      "课": 3523,
      "谁": 3524,
      "谦": 3525,
      "谭": 3526,
      "谷": 3527,
      "豆": 3528,
      "豊": 3529,
      "豌": 3530,
      "豐": 3531,
      "豚": 3532,
      "象": 3533,
      "豪": 3534,
      "豫": 3535,
      "豬": 3536,
      "豹": 3537,
      "貓": 3538,
      "貝": 3539,
      "貞": 3540,
      "負": 3541,
      "財": 3542,
      "貫": 3543,
      "貴": 3544,
      "費": 3545,
      "賀": 3546,
      "資": 3547,
      "賈": 3548,
      "賊": 3549,
      "賓": 3550,
      "賞": 3551,
      "賢": 3552,
      "賦": 3553,
      "質": 3554,
      "購": 3555,
      "贈": 3556,
      "贝": 3557,
      "贞": 3558,
      "财": 3559,
      "贤": 3560,
      "质": 3561,
      "贵": 3562,
      "贺": 3563,
      "贼": 3564,
      "资": 3565,
      "赤": 3566,
      "赭": 3567,
      "走": 3568,
      "赵": 3569,
      "起": 3570,
      "超": 3571,
      "越": 3572,
      "趙": 3573,
      "足": 3574,
      "跆": 3575,
      "跑": 3576,
      "跖": 3577,
      "跟": 3578,
      "跡": 3579,
      "路": 3580,
      "跳": 3581,
      "踊": 3582,
      "踏": 3583,
      "踢": 3584,
      "蹴": 3585,
      "身": 3586,
      "車": 3587,
      "軌": 3588,
      "軍": 3589,
      "軒": 3590,
      "転": 3591,
      "軽": 3592,
      "載": 3593,
      "輔": 3594,
      "輛": 3595,
      "輝": 3596,
      "輪": 3597,
      "輿": 3598,
      "轉": 3599,
      "车": 3600,
      "轩": 3601,
      "转": 3602,
      "辆": 3603,
      "辉": 3604,
      "辛": 3605,
      "辣": 3606,
      "辨": 3607,
      "辭": 3608,
      "辯": 3609,
      "辰": 3610,
      "農": 3611,
      "边": 3612,
      "辺": 3613,
      "辽": 3614,
      "达": 3615,
      "辿": 3616,
      "迄": 3617,
      "迅": 3618,
      "过": 3619,
      "迈": 3620,
      "运": 3621,
      "近": 3622,
      "返": 3623,
      "这": 3624,
      "进": 3625,
      "远": 3626,
      "迦": 3627,
      "迪": 3628,
      "述": 3629,
      "迷": 3630,
      "追": 3631,
      "送": 3632,
      "适": 3633,
      "逆": 3634,
      "选": 3635,
      "這": 3636,
      "通": 3637,
      "造": 3638,
      "逢": 3639,
      "連": 3640,
      "逯": 3641,
      "週": 3642,
      "進": 3643,
      "遁": 3644,
      "遇": 3645,
      "遊": 3646,
      "運": 3647,
      "遍": 3648,
      "過": 3649,
      "道": 3650,
      "達": 3651,
      "遗": 3652,
      "遙": 3653,
      "遜": 3654,
      "遠": 3655,
      "遥": 3656,
      "遮": 3657,
      "選": 3658,
      "遺": 3659,
      "遼": 3660,
      "避": 3661,
      "邁": 3662,
      "還": 3663,
      "邊": 3664,
      "邑": 3665,
      "邓": 3666,
      "那": 3667,
      "邦": 3668,
      "邪": 3669,
      "邱": 3670,
      "邵": 3671,
      "郁": 3672,
      "郊": 3673,
      "郎": 3674,
      "郑": 3675,
      "郛": 3676,
      "郝": 3677,
      "郡": 3678,
      "部": 3679,
      "郭": 3680,
      "郷": 3681,
      "都": 3682,
      "鄧": 3683,
      "鄭": 3684,
      "酈": 3685,
      "酉": 3686,
      "酒": 3687,
      "酔": 3688,
      "酥": 3689,
      "酱": 3690,
      "酷": 3691,
      "酸": 3692,
      "醋": 3693,
      "醒": 3694,
      "醫": 3695,
      "采": 3696,
      "釈": 3697,
      "釋": 3698,
      "里": 3699,
      "重": 3700,
      "野": 3701,
      "量": 3702,
      "金": 3703,
      "釗": 3704,
      "釣": 3705,
      "鈍": 3706,
      "鈴": 3707,
      "鉄": 3708,
      "鉢": 3709,
      "鉦": 3710,
      "鉱": 3711,
      "鉴": 3712,
      "銀": 3713,
      "銃": 3714,
      "銅": 3715,
      "銓": 3716,
      "銖": 3717,
      "銘": 3718,
      "銳": 3719,
      "鋒": 3720,
      "鋪": 3721,
      "鋼": 3722,
      "錄": 3723,
      "錡": 3724,
      "錦": 3725,
      "錬": 3726,
      "録": 3727,
      "鍋": 3728,
      "鍵": 3729,
      "鎖": 3730,
      "鎧": 3731,
      "鎮": 3732,
      "鏡": 3733,
      "鐘": 3734,
      "鐵": 3735,
      "鐸": 3736,
      "鑒": 3737,
      "钊": 3738,
      "钢": 3739,
      "钦": 3740,
      "钱": 3741,
      "铁": 3742,
      "铎": 3743,
      "铜": 3744,
      "铭": 3745,
      "铺": 3746,
      "锡": 3747,
      "键": 3748,
      "镇": 3749,
      "镗": 3750,
      "镜": 3751,
      "長": 3752,
      "长": 3753,
      "門": 3754,
      "閃": 3755,
      "開": 3756,
      "閏": 3757,
      "閒": 3758,
      "間": 3759,
      "関": 3760,
      "閣": 3761,
      "閨": 3762,
      "闇": 3763,
      "闍": 3764,
      "闕": 3765,
      "闘": 3766,
      "關": 3767,
      "门": 3768,
      "问": 3769,
      "闯": 3770,
      "阁": 3771,
      "阪": 3772,
      "防": 3773,
      "阳": 3774,
      "阿": 3775,
      "陀": 3776,
      "附": 3777,
      "际": 3778,
      "陈": 3779,
      "降": 3780,
      "限": 3781,
      "陛": 3782,
      "院": 3783,
      "陣": 3784,
      "除": 3785,
      "陪": 3786,
      "陳": 3787,
      "陵": 3788,
      "陶": 3789,
      "陸": 3790,
      "険": 3791,
      "陽": 3792,
      "隆": 3793,
      "隊": 3794,
      "階": 3795,
      "隔": 3796,
      "隗": 3797,
      "隠": 3798,
      "隣": 3799,
      "隱": 3800,
      "隴": 3801,
      "隸": 3802,
      "隻": 3803,
      "隼": 3804,
      "雀": 3805,
      "雁": 3806,
      "雄": 3807,
      "雅": 3808,
      "集": 3809,
      "雇": 3810,
      "雉": 3811,
      "雎": 3812,
      "雕": 3813,
      "雙": 3814,
      "雛": 3815,
      "雜": 3816,
      "雞": 3817,
      "離": 3818,
      "難": 3819,
      "雨": 3820,
      "雪": 3821,
      "雲": 3822,
      "雳": 3823,
      "零": 3824,
      "雷": 3825,
      "電": 3826,
      "雾": 3827,
      "需": 3828,
      "霆": 3829,
      "震": 3830,
      "霊": 3831,
      "霍": 3832,
      "霖": 3833,
      "霜": 3834,
      "霞": 3835,
      "霧": 3836,
      "霰": 3837,
      "露": 3838,
      "霸": 3839,
      "霹": 3840,
      "靂": 3841,
      "靈": 3842,
      "青": 3843,
      "靖": 3844,
      "静": 3845,
      "非": 3846,
      "靠": 3847,
      "面": 3848,
      "革": 3849,
      "靴": 3850,
      "靼": 3851,
      "鞋": 3852,
      "鞍": 3853,
      "鞠": 3854,
      "韃": 3855,
      "韋": 3856,
      "韓": 3857,
      "韦": 3858,
      "韩": 3859,
      "韭": 3860,
      "音": 3861,
      "韶": 3862,
      "響": 3863,
      "頃": 3864,
      "項": 3865,
      "順": 3866,
      "須": 3867,
      "頌": 3868,
      "頒": 3869,
      "領": 3870,
      "頭": 3871,
      "顆": 3872,
      "題": 3873,
      "額": 3874,
      "顏": 3875,
      "顔": 3876,
      "願": 3877,
      "類": 3878,
      "顯": 3879,
      "项": 3880,
      "顾": 3881,
      "颂": 3882,
      "颊": 3883,
      "颖": 3884,
      "颗": 3885,
      "颜": 3886,
      "風": 3887,
      "颪": 3888,
      "颱": 3889,
      "飄": 3890,
      "风": 3891,
      "飛": 3892,
      "飞": 3893,
      "食": 3894,
      "飯": 3895,
      "飾": 3896,
      "餅": 3897,
      "養": 3898,
      "餓": 3899,
      "館": 3900,
      "饼": 3901,
      "饾": 3902,
      "馆": 3903,
      "馒": 3904,
      "首": 3905,
      "香": 3906,
      "馬": 3907,
      "馮": 3908,
      "駆": 3909,
      "駐": 3910,
      "駒": 3911,
      "駙": 3912,
      "駢": 3913,
      "駿": 3914,
      "騎": 3915,
      "騒": 3916,
      "験": 3917,
      "騭": 3918,
      "騰": 3919,
      "騷": 3920,
      "驁": 3921,
      "驗": 3922,
      "驚": 3923,
      "驤": 3924,
      "马": 3925,
      "驰": 3926,
      "骨": 3927,
      "骸": 3928,
      "髀": 3929,
      "體": 3930,
      "高": 3931,
      "髪": 3932,
      "鬘": 3933,
      "鬥": 3934,
      "鬪": 3935,
      "鬼": 3936,
      "魂": 3937,
      "魄": 3938,
      "魔": 3939,
      "魚": 3940,
      "魯": 3941,
      "鮑": 3942,
      "鮫": 3943,
      "鮮": 3944,
      "鯖": 3945,
      "鯵": 3946,
      "鰐": 3947,
      "鱀": 3948,
      "鱼": 3949,
      "鲁": 3950,
      "鲤": 3951,
      "鳥": 3952,
      "鳩": 3953,
      "鳳": 3954,
      "鳴": 3955,
      "鳶": 3956,
      "鴉": 3957,
      "鴣": 3958,
      "鴨": 3959,
      "鴻": 3960,
      "鵡": 3961,
      "鵩": 3962,
      "鵬": 3963,
      "鶍": 3964,
      "鶴": 3965,
      "鷓": 3966,
      "鷹": 3967,
      "鷺": 3968,
      "鸚": 3969,
      "鸟": 3970,
      "鸡": 3971,
      "鸭": 3972,
      "鸿": 3973,
      "鹅": 3974,
      "鹹": 3975,
      "鹼": 3976,
      "鹽": 3977,
      "鹿": 3978,
      "麗": 3979,
      "麥": 3980,
      "麵": 3981,
      "麻": 3982,
      "麼": 3983,
      "麾": 3984,
      "黃": 3985,
      "黄": 3986,
      "黎": 3987,
      "黑": 3988,
      "黒": 3989,
      "黙": 3990,
      "黛": 3991,
      "黨": 3992,
      "鼉": 3993,
      "鼎": 3994,
      "鼓": 3995,
      "鼠": 3996,
      "鼻": 3997,
      "齉": 3998,
      "齊": 3999,
      "齋": 4000,
      "齐": 4001,
      "龍": 4002,
      "龙": 4003,
      "ꜛ": 4004,
      "ꜜ": 4005,
      "ꜣ": 4006,
      "ꜩ": 4007,
      "ꜫ": 4008,
      "ꜭ": 4009,
      "ꞅ": 4010,
      "ꞎ": 4011,
      "ꞵ": 4012,
      "ꦠ": 4013,
      "ꦯ": 4014,
      "ꦲ": 4015,
      "ꭓ": 4016,
      "ꭰ": 4017,
      "ꭳ": 4018,
      "ꭶ": 4019,
      "ꭸ": 4020,
      "ꭹ": 4021,
      "ꮀ": 4022,
      "ꮃ": 4023,
      "ꮉ": 4024,
      "ꮝ": 4025,
      "ꮿ": 4026,
      "ﬀ": 4027,
      "ﬁ": 4028,
      "ﬂ": 4029,
      "ﮭ": 4030,
      "ﮮ": 4031,
      "ﷲ": 4032,
      "ﷺ": 4033,
      "ﺒ": 4034,
      "ﻉ": 4035,
      "ﻋ": 4036,
      "ﻔ": 4037,
      "ﻴ": 4038,
      "！": 4039,
      "％": 4040,
      "＆": 4041,
      "（": 4042,
      "）": 4043,
      "，": 4044,
      "－": 4045,
      "／": 4046,
      "１": 4047,
      "２": 4048,
      "３": 4049,
      "４": 4050,
      "６": 4051,
      "：": 4052,
      "＜": 4053,
      "＝": 4054,
      "＞": 4055,
      "？": 4056,
      "［": 4057,
      "］": 4058,
      "ａ": 4059,
      "ｃ": 4060,
      "ｄ": 4061,
      "ｇ": 4062,
      "ｉ": 4063,
      "ｊ": 4064,
      "ｌ": 4065,
      "ｍ": 4066,
      "ｐ": 4067,
      "ｒ": 4068,
      "ｘ": 4069,
      "｜": 4070,
      "～": 4071,
      "｢": 4072,
      "｣": 4073,
      "･": 4074,
      "ｰ": 4075,
      "￥": 4076,
      "𐀁": 4077,
      "𐀈": 4078,
      "𐀫": 4079,
      "𐎠": 4080,
      "𐎢": 4081,
      "𐎭": 4082,
      "𐎰": 4083,
      "𐎹": 4084,
      "𐎺": 4085,
      "𐎼": 4086,
      "𐏁": 4087,
      "𐭃": 4088,
      "𐭉": 4089,
      "𐭓": 4090,
      "𐭕": 4091,
      "𒀯": 4092,
      "𒀳": 4093,
      "𝕄": 4094,
      "𝕡": 4095,
      "🖕": 4096,
      "th": 4097,
      "in": 4098,
      "the": 4099,
      "an": 4100,
      "er": 4101,
      "on": 4102,
      "ed": 4103,
      "re": 4104,
      "at": 4105,
      "en": 4106,
      "or": 4107,
      "st": 4108,
      "al": 4109,
      "ar": 4110,
      "as": 4111,
      "and": 4112,
      "of": 4113,
      "to": 4114,
      "ing": 4115,
      "is": 4116,
      "es": 4117,
      "it": 4118,
      "ro": 4119,
      "ic": 4120,
      "ou": 4121,
      "le": 4122,
      "ion": 4123,
      "ch": 4124,
      "se": 4125,
      "il": 4126,
      "am": 4127,
      "ent": 4128,
      "ad": 4129,
      "el": 4130,
      "ac": 4131,
      "co": 4132,
      "for": 4133,
      "be": 4134,
      "was": 4135,
      "de": 4136,
      "ur": 4137,
      "un": 4138,
      "ly": 4139,
      "ir": 4140,
      "wh": 4141,
      "im": 4142,
      "-@": 4143,
      "@-@": 4144,
      "iv": 4145,
      "ig": 4146,
      "he": 4147,
      "lo": 4148,
      "ter": 4149,
      "wi": 4150,
      "con": 4151,
      "ay": 4152,
      "ce": 4153,
      "ol": 4154,
      "ver": 4155,
      "with": 4156,
      "id": 4157,
      "ag": 4158,
      "us": 4159,
      "ation": 4160,
      "that": 4161,
      "by": 4162,
      "ct": 4163,
      "te": 4164,
      "no": 4165,
      "su": 4166,
      "ap": 4167,
      "mo": 4168,
      "me": 4169,
      "ne": 4170,
      "sh": 4171,
      "ut": 4172,
      "po": 4173,
      "av": 4174,
      "com": 4175,
      "tr": 4176,
      "19": 4177,
      "ain": 4178,
      "pe": 4179,
      "ab": 4180,
      "pro": 4181,
      "ers": 4182,
      "so": 4183,
      "ul": 4184,
      "pl": 4185,
      "ist": 4186,
      "res": 4187,
      "ere": 4188,
      "00": 4189,
      "all": 4190,
      "rom": 4191,
      "we": 4192,
      "his": 4193,
      "um": 4194,
      "from": 4195,
      "ther": 4196,
      "ge": 4197,
      "cl": 4198,
      "art": 4199,
      "are": 4200,
      "oun": 4201,
      "op": 4202,
      "ill": 4203,
      "ie": 4204,
      "ies": 4205,
      "man": 4206,
      "fe": 4207,
      "ber": 4208,
      "igh": 4209,
      "ke": 4210,
      "ex": 4211,
      "af": 4212,
      "bo": 4213,
      "ate": 4214,
      "ment": 4215,
      "qu": 4216,
      "ard": 4217,
      "ts": 4218,
      "ich": 4219,
      "were": 4220,
      "ast": 4221,
      "ip": 4222,
      "per": 4223,
      "au": 4224,
      "gh": 4225,
      "br": 4226,
      "if": 4227,
      "one": 4228,
      "ho": 4229,
      "ld": 4230,
      "cr": 4231,
      "ated": 4232,
      "ong": 4233,
      "ity": 4234,
      "ame": 4235,
      "end": 4236,
      "ive": 4237,
      "ess": 4238,
      "ted": 4239,
      "str": 4240,
      "had": 4241,
      "ian": 4242,
      "our": 4243,
      "ish": 4244,
      "wn": 4245,
      "pr": 4246,
      "ack": 4247,
      "out": 4248,
      "ve": 4249,
      "up": 4250,
      "ear": 4251,
      "ial": 4252,
      "wor": 4253,
      "which": 4254,
      "der": 4255,
      "but": 4256,
      "por": 4257,
      "do": 4258,
      "ant": 4259,
      "ia": 4260,
      "ak": 4261,
      "ine": 4262,
      "her": 4263,
      "du": 4264,
      "wo": 4265,
      "ud": 4266,
      "act": 4267,
      "cor": 4268,
      "its": 4269,
      "not": 4270,
      "go": 4271,
      "ary": 4272,
      "ass": 4273,
      "ell": 4274,
      "fir": 4275,
      "em": 4276,
      "ical": 4277,
      "ave": 4278,
      "tim": 4279,
      "gr": 4280,
      "low": 4281,
      "bl": 4282,
      "ser": 4283,
      "20": 4284,
      "this": 4285,
      "200": 4286,
      "li": 4287,
      "ach": 4288,
      "mar": 4289,
      "od": 4290,
      "fo": 4291,
      "age": 4292,
      "after": 4293,
      "ight": 4294,
      "aw": 4295,
      "ould": 4296,
      "ree": 4297,
      "first": 4298,
      "new": 4299,
      "ous": 4300,
      "part": 4301,
      "other": 4302,
      "ction": 4303,
      "their": 4304,
      "form": 4305,
      "who": 4306,
      "sp": 4307,
      "ign": 4308,
      "min": 4309,
      "land": 4310,
      "ition": 4311,
      "att": 4312,
      "also": 4313,
      "pres": 4314,
      "ater": 4315,
      "ound": 4316,
      "gu": 4317,
      "ide": 4318,
      "ind": 4319,
      "des": 4320,
      "ire": 4321,
      "play": 4322,
      "fr": 4323,
      "ph": 4324,
      "they": 4325,
      "ib": 4326,
      "comm": 4327,
      "ck": 4328,
      "off": 4329,
      "ure": 4330,
      "two": 4331,
      "ty": 4332,
      "pre": 4333,
      "cre": 4334,
      "18": 4335,
      "pos": 4336,
      "nor": 4337,
      "ma": 4338,
      "she": 4339,
      "comp": 4340,
      "cent": 4341,
      "have": 4342,
      "ally": 4343,
      "dis": 4344,
      "ile": 4345,
      "over": 4346,
      "rou": 4347,
      "iz": 4348,
      "jo": 4349,
      "air": 4350,
      ".@": 4351,
      "@.@": 4352,
      "has": 4353,
      "ice": 4354,
      "ans": 4355,
      "ev": 4356,
      "inter": 4357,
      "year": 4358,
      "ence": 4359,
      "dr": 4360,
      "uring": 4361,
      "cont": 4362,
      "been": 4363,
      "ace": 4364,
      "ok": 4365,
      "ied": 4366,
      ",@": 4367,
      "@,@": 4368,
      "ough": 4369,
      "201": 4370,
      "mber": 4371,
      "can": 4372,
      "col": 4373,
      "ship": 4374,
      "ren": 4375,
      "ory": 4376,
      "est": 4377,
      "port": 4378,
      "tur": 4379,
      "time": 4380,
      "ite": 4381,
      "mon": 4382,
      "spe": 4383,
      "ance": 4384,
      "ade": 4385,
      "work": 4386,
      "int": 4387,
      "gro": 4388,
      "arr": 4389,
      "when": 4390,
      "ved": 4391,
      "able": 4392,
      "fl": 4393,
      "ely": 4394,
      "sion": 4395,
      "fin": 4396,
      "io": 4397,
      "ep": 4398,
      "incl": 4399,
      "par": 4400,
      "fer": 4401,
      "ang": 4402,
      "ced": 4403,
      "during": 4404,
      "eng": 4405,
      "cord": 4406,
      "old": 4407,
      "sho": 4408,
      "fil": 4409,
      "gen": 4410,
      "ail": 4411,
      "way": 4412,
      "ations": 4413,
      "would": 4414,
      "vel": 4415,
      "into": 4416,
      "him": 4417,
      "et": 4418,
      "most": 4419,
      "more": 4420,
      "oc": 4421,
      "ten": 4422,
      "coun": 4423,
      "sy": 4424,
      "om": 4425,
      "son": 4426,
      "char": 4427,
      "main": 4428,
      "fore": 4429,
      "rough": 4430,
      "war": 4431,
      "sc": 4432,
      "some": 4433,
      "ates": 4434,
      "day": 4435,
      "bec": 4436,
      "amp": 4437,
      "ton": 4438,
      "ase": 4439,
      "ased": 4440,
      "ces": 4441,
      "bet": 4442,
      "ited": 4443,
      "vie": 4444,
      "reg": 4445,
      "bu": 4446,
      "sing": 4447,
      "film": 4448,
      "while": 4449,
      "sou": 4450,
      "used": 4451,
      "und": 4452,
      "ason": 4453,
      "pu": 4454,
      "includ": 4455,
      "game": 4456,
      "pt": 4457,
      "med": 4458,
      "cond": 4459,
      "ric": 4460,
      "ning": 4461,
      "cess": 4462,
      "cted": 4463,
      "les": 4464,
      "ju": 4465,
      "under": 4466,
      "though": 4467,
      "gan": 4468,
      "there": 4469,
      "only": 4470,
      "than": 4471,
      "sel": 4472,
      "sa": 4473,
      "wr": 4474,
      "high": 4475,
      "produ": 4476,
      "ue": 4477,
      "king": 4478,
      "fol": 4479,
      "ild": 4480,
      "ious": 4481,
      "west": 4482,
      "sch": 4483,
      "later": 4484,
      "ors": 4485,
      "any": 4486,
      "mus": 4487,
      "song": 4488,
      "ger": 4489,
      "ix": 4490,
      "my": 4491,
      "ens": 4492,
      "again": 4493,
      "bro": 4494,
      "ann": 4495,
      "ot": 4496,
      "je": 4497,
      "may": 4498,
      "ions": 4499,
      "amer": 4500,
      "cap": 4501,
      "rel": 4502,
      "about": 4503,
      "three": 4504,
      "ween": 4505,
      "ath": 4506,
      "199": 4507,
      "eld": 4508,
      "ick": 4509,
      "vis": 4510,
      "between": 4511,
      "through": 4512,
      "led": 4513,
      "rele": 4514,
      "publ": 4515,
      "ating": 4516,
      "ss": 4517,
      "them": 4518,
      "gre": 4519,
      "tain": 4520,
      "follow": 4521,
      "record": 4522,
      "pol": 4523,
      "ational": 4524,
      "red": 4525,
      "kno": 4526,
      "second": 4527,
      "num": 4528,
      "ele": 4529,
      "where": 4530,
      "ra": 4531,
      "10": 4532,
      "als": 4533,
      "ict": 4534,
      "ward": 4535,
      "sub": 4536,
      "ful": 4537,
      "season": 4538,
      "lar": 4539,
      "ste": 4540,
      "turn": 4541,
      "mat": 4542,
      "car": 4543,
      "cur": 4544,
      "alb": 4545,
      "four": 4546,
      "world": 4547,
      "view": 4548,
      "back": 4549,
      "sur": 4550,
      "men": 4551,
      "well": 4552,
      "americ": 4553,
      "ting": 4554,
      "stru": 4555,
      "spec": 4556,
      "north": 4557,
      "ident": 4558,
      "set": 4559,
      "then": 4560,
      "la": 4561,
      "before": 4562,
      "ered": 4563,
      "team": 4564,
      "000": 4565,
      "ames": 4566,
      "made": 4567,
      "ters": 4568,
      "writ": 4569,
      "mu": 4570,
      "ular": 4571,
      "call": 4572,
      "mer": 4573,
      "many": 4574,
      "will": 4575,
      "such": 4576,
      "add": 4577,
      "ived": 4578,
      "mb": 4579,
      "loc": 4580,
      "cer": 4581,
      "bel": 4582,
      "ank": 4583,
      "national": 4584,
      "album": 4585,
      "17": 4586,
      "sup": 4587,
      "tem": 4588,
      "ings": 4589,
      "cons": 4590,
      "sever": 4591,
      "ished": 4592,
      "gener": 4593,
      "appe": 4594,
      "years": 4595,
      "ics": 4596,
      "tro": 4597,
      "15": 4598,
      "ry": 4599,
      "ta": 4600,
      "mis": 4601,
      "cy": 4602,
      "state": 4603,
      "serv": 4604,
      "ins": 4605,
      "howe": 4606,
      "mor": 4607,
      "mill": 4608,
      "south": 4609,
      "mi": 4610,
      "ale": 4611,
      "ific": 4612,
      "show": 4613,
      "both": 4614,
      "very": 4615,
      "ily": 4616,
      "ents": 4617,
      "however": 4618,
      "epis": 4619,
      "ped": 4620,
      "bur": 4621,
      "rece": 4622,
      "..": 4623,
      "being": 4624,
      "music": 4625,
      "log": 4626,
      "these": 4627,
      "lead": 4628,
      "az": 4629,
      "stud": 4630,
      "series": 4631,
      "batt": 4632,
      "ane": 4633,
      "ult": 4634,
      "uary": 4635,
      "against": 4636,
      "sim": 4637,
      "ments": 4638,
      "ual": 4639,
      "ond": 4640,
      "number": 4641,
      "charac": 4642,
      "vol": 4643,
      "ince": 4644,
      "ub": 4645,
      "hist": 4646,
      "city": 4647,
      "line": 4648,
      "soc": 4649,
      "arch": 4650,
      "ft": 4651,
      "found": 4652,
      "16": 4653,
      "brit": 4654,
      "velop": 4655,
      "iver": 4656,
      "tal": 4657,
      "appear": 4658,
      "12": 4659,
      "leg": 4660,
      "cro": 4661,
      "develop": 4662,
      "united": 4663,
      "win": 4664,
      "ven": 4665,
      "ause": 4666,
      "unt": 4667,
      "became": 4668,
      "down": 4669,
      "ob": 4670,
      "ef": 4671,
      "long": 4672,
      "east": 4673,
      "dire": 4674,
      "pop": 4675,
      "several": 4676,
      "mil": 4677,
      "including": 4678,
      "orig": 4679,
      "wer": 4680,
      "head": 4681,
      "lin": 4682,
      "oper": 4683,
      "ca": 4684,
      "hn": 4685,
      "early": 4686,
      "feat": 4687,
      "bor": 4688,
      "contin": 4689,
      "198": 4690,
      "known": 4691,
      "stor": 4692,
      "did": 4693,
      "ms": 4694,
      "pass": 4695,
      "ode": 4696,
      "ley": 4697,
      "nam": 4698,
      "ek": 4699,
      "gover": 4700,
      "let": 4701,
      "trans": 4702,
      "dist": 4703,
      "tre": 4704,
      "dif": 4705,
      "sul": 4706,
      "like": 4707,
      "origin": 4708,
      "194": 4709,
      "cast": 4710,
      "clo": 4711,
      "fi": 4712,
      "ended": 4713,
      "ii": 4714,
      "ons": 4715,
      "public": 4716,
      "pers": 4717,
      "cour": 4718,
      "bre": 4719,
      "ner": 4720,
      "ative": 4721,
      "div": 4722,
      "try": 4723,
      "suc": 4724,
      "ities": 4725,
      "30": 4726,
      "ange": 4727,
      "ures": 4728,
      "prov": 4729,
      "states": 4730,
      "ise": 4731,
      "crit": 4732,
      "rol": 4733,
      "episode": 4734,
      "group": 4735,
      "jun": 4736,
      "john": 4737,
      "said": 4738,
      "hou": 4739,
      "run": 4740,
      "following": 4741,
      "ird": 4742,
      "cle": 4743,
      "design": 4744,
      "ern": 4745,
      "peri": 4746,
      "could": 4747,
      "ury": 4748,
      "american": 4749,
      "own": 4750,
      "vo": 4751,
      "fam": 4752,
      "sk": 4753,
      "use": 4754,
      "although": 4755,
      "sign": 4756,
      "dec": 4757,
      "called": 4758,
      "14": 4759,
      "del": 4760,
      "roy": 4761,
      "jor": 4762,
      "sm": 4763,
      "197": 4764,
      "sed": 4765,
      "cover": 4766,
      "self": 4767,
      "196": 4768,
      "offic": 4769,
      "near": 4770,
      "ually": 4771,
      "present": 4772,
      "stem": 4773,
      "band": 4774,
      "remain": 4775,
      "descr": 4776,
      "road": 4777,
      "life": 4778,
      "hy": 4779,
      "ball": 4780,
      "gest": 4781,
      "began": 4782,
      "bar": 4783,
      "scho": 4784,
      "open": 4785,
      "13": 4786,
      "sen": 4787,
      "na": 4788,
      "until": 4789,
      "ash": 4790,
      "ople": 4791,
      "released": 4792,
      "ose": 4793,
      "along": 4794,
      "aking": 4795,
      "school": 4796,
      "because": 4797,
      "ided": 4798,
      "just": 4799,
      "ised": 4800,
      "ort": 4801,
      "position": 4802,
      "success": 4803,
      "dep": 4804,
      "class": 4805,
      "ized": 4806,
      "house": 4807,
      "ital": 4808,
      "ject": 4809,
      "var": 4810,
      "ivers": 4811,
      "fa": 4812,
      "come": 4813,
      "people": 4814,
      "you": 4815,
      "austr": 4816,
      "place": 4817,
      "gust": 4818,
      "ron": 4819,
      "less": 4820,
      "ium": 4821,
      "system": 4822,
      "ling": 4823,
      "dy": 4824,
      "ially": 4825,
      "week": 4826,
      "ists": 4827,
      "hel": 4828,
      "prev": 4829,
      "50": 4830,
      "million": 4831,
      "return": 4832,
      "hal": 4833,
      "test": 4834,
      "ys": 4835,
      "ier": 4836,
      "british": 4837,
      "cut": 4838,
      "ham": 4839,
      "sco": 4840,
      "tit": 4841,
      "since": 4842,
      "town": 4843,
      "best": 4844,
      "attack": 4845,
      "around": 4846,
      "six": 4847,
      "major": 4848,
      "award": 4849,
      "sep": 4850,
      "book": 4851,
      "field": 4852,
      "ible": 4853,
      "colle": 4854,
      "lit": 4855,
      "fect": 4856,
      "start": 4857,
      "each": 4858,
      "track": 4859,
      "read": 4860,
      "build": 4861,
      "times": 4862,
      "continu": 4863,
      "eu": 4864,
      "now": 4865,
      "val": 4866,
      "requ": 4867,
      "character": 4868,
      "govern": 4869,
      "ision": 4870,
      "tember": 4871,
      "def": 4872,
      "care": 4873,
      "grap": 4874,
      "xt": 4875,
      "september": 4876,
      "pen": 4877,
      "star": 4878,
      "comple": 4879,
      "har": 4880,
      "same": 4881,
      "august": 4882,
      "took": 4883,
      "plo": 4884,
      "plac": 4885,
      "stand": 4886,
      "final": 4887,
      "order": 4888,
      "top": 4889,
      "11": 4890,
      "resul": 4891,
      "que": 4892,
      "another": 4893,
      "five": 4894,
      "ble": 4895,
      "mid": 4896,
      "km": 4897,
      "mal": 4898,
      "what": 4899,
      "ior": 4900,
      "sl": 4901,
      "den": 4902,
      "get": 4903,
      "anc": 4904,
      "ired": 4905,
      "cal": 4906,
      "fur": 4907,
      "jan": 4908,
      "camp": 4909,
      "ri": 4910,
      "austral": 4911,
      "aving": 4912,
      "ress": 4913,
      "area": 4914,
      "formed": 4915,
      "water": 4916,
      "aim": 4917,
      "tour": 4918,
      "describ": 4919,
      "consid": 4920,
      "rest": 4921,
      "march": 4922,
      "gun": 4923,
      "ple": 4924,
      "ves": 4925,
      "ism": 4926,
      "aft": 4927,
      "met": 4928,
      "side": 4929,
      "pat": 4930,
      "century": 4931,
      "mot": 4932,
      "ore": 4933,
      "ks": 4934,
      "received": 4935,
      "home": 4936,
      "ctor": 4937,
      "fle": 4938,
      "urch": 4939,
      "octo": 4940,
      "due": 4941,
      "small": 4942,
      "yor": 4943,
      "october": 4944,
      "last": 4945,
      "ord": 4946,
      "ility": 4947,
      "gin": 4948,
      "contr": 4949,
      "person": 4950,
      "os": 4951,
      "ives": 4952,
      "even": 4953,
      "allow": 4954,
      "match": 4955,
      "ically": 4956,
      "games": 4957,
      "power": 4958,
      "chr": 4959,
      "mag": 4960,
      "tle": 4961,
      "pa": 4962,
      "partic": 4963,
      "government": 4964,
      "thern": 4965,
      "ians": 4966,
      "adv": 4967,
      "ked": 4968,
      "ground": 4969,
      "ket": 4970,
      "ison": 4971,
      "ately": 4972,
      "ines": 4973,
      "york": 4974,
      "command": 4975,
      "ief": 4976,
      "child": 4977,
      "june": 4978,
      "ina": 4979,
      "ported": 4980,
      "won": 4981,
      "squ": 4982,
      "resp": 4983,
      "single": 4984,
      "third": 4985,
      "general": 4986,
      "dam": 4987,
      "ril": 4988,
      "plan": 4989,
      "force": 4990,
      "company": 4991,
      "ik": 4992,
      "25": 4993,
      "july": 4994,
      "point": 4995,
      "wal": 4996,
      "played": 4997,
      "dece": 4998,
      "nove": 4999,
      "iving": 5000,
      "ional": 5001,
      "ient": 5002,
      "november": 5003,
      "sequ": 5004,
      "event": 5005,
      "ah": 5006,
      "list": 5007,
      "appro": 5008,
      "death": 5009,
      "reach": 5010,
      "sal": 5011,
      "review": 5012,
      "much": 5013,
      "ru": 5014,
      "island": 5015,
      "cas": 5016,
      "large": 5017,
      "short": 5018,
      "lish": 5019,
      "april": 5020,
      "bus": 5021,
      "differ": 5022,
      "organ": 5023,
      "kill": 5024,
      "name": 5025,
      "posed": 5026,
      "battle": 5027,
      "law": 5028,
      "aged": 5029,
      "accord": 5030,
      "ages": 5031,
      "story": 5032,
      "vide": 5033,
      "di": 5034,
      "ained": 5035,
      "rad": 5036,
      "univers": 5037,
      "left": 5038,
      "family": 5039,
      "gl": 5040,
      "went": 5041,
      "nat": 5042,
      "ively": 5043,
      "tt": 5044,
      "ster": 5045,
      "wood": 5046,
      "idge": 5047,
      "0s": 5048,
      "month": 5049,
      "hand": 5050,
      "ined": 5051,
      "based": 5052,
      "vir": 5053,
      "ague": 5054,
      "inc": 5055,
      "ude": 5056,
      "sum": 5057,
      "production": 5058,
      "addition": 5059,
      "club": 5060,
      "incre": 5061,
      "far": 5062,
      "ilt": 5063,
      "black": 5064,
      "thor": 5065,
      "version": 5066,
      "german": 5067,
      "poin": 5068,
      "ships": 5069,
      "army": 5070,
      "history": 5071,
      "thing": 5072,
      "avy": 5073,
      "ned": 5074,
      "december": 5075,
      "bat": 5076,
      "fic": 5077,
      "river": 5078,
      "great": 5079,
      "named": 5080,
      "fall": 5081,
      "moved": 5082,
      "issu": 5083,
      "dest": 5084,
      "hum": 5085,
      "according": 5086,
      "included": 5087,
      "poss": 5088,
      "claim": 5089,
      "constru": 5090,
      "rote": 5091,
      "using": 5092,
      "sw": 5093,
      "make": 5094,
      "january": 5095,
      "fort": 5096,
      "195": 5097,
      "gram": 5098,
      "ford": 5099,
      "wrote": 5100,
      "tak": 5101,
      "polit": 5102,
      "jap": 5103,
      "late": 5104,
      "park": 5105,
      "193": 5106,
      "ute": 5107,
      "24": 5108,
      "euro": 5109,
      "gy": 5110,
      "cept": 5111,
      "carr": 5112,
      "hor": 5113,
      "don": 5114,
      "species": 5115,
      "japan": 5116,
      "cho": 5117,
      "flu": 5118,
      "sty": 5119,
      "init": 5120,
      "real": 5121,
      "pical": 5122,
      "ont": 5123,
      "champ": 5124,
      "previous": 5125,
      "video": 5126,
      "ness": 5127,
      "post": 5128,
      "former": 5129,
      "within": 5130,
      "original": 5131,
      "bill": 5132,
      "lim": 5133,
      "still": 5134,
      "ified": 5135,
      "control": 5136,
      "described": 5137,
      "board": 5138,
      "ney": 5139,
      "those": 5140,
      "ution": 5141,
      "fact": 5142,
      "minist": 5143,
      "forman": 5144,
      "ler": 5145,
      "built": 5146,
      "rench": 5147,
      "next": 5148,
      "vict": 5149,
      "...": 5150,
      "ark": 5151,
      "storm": 5152,
      "uc": 5153,
      "commun": 5154,
      "light": 5155,
      "mbers": 5156,
      "put": 5157,
      "performan": 5158,
      "ps": 5159,
      "mc": 5160,
      "among": 5161,
      "rus": 5162,
      "flo": 5163,
      "release": 5164,
      "support": 5165,
      "further": 5166,
      "bert": 5167,
      "attem": 5168,
      "iven": 5169,
      "league": 5170,
      "pect": 5171,
      "fri": 5172,
      "ants": 5173,
      "ilar": 5174,
      "tele": 5175,
      "fac": 5176,
      "lab": 5177,
      "effect": 5178,
      "fel": 5179,
      "foot": 5180,
      "che": 5181,
      "ba": 5182,
      "placed": 5183,
      "bas": 5184,
      "route": 5185,
      "days": 5186,
      "bal": 5187,
      "vision": 5188,
      "white": 5189,
      "held": 5190,
      "ared": 5191,
      "christ": 5192,
      "night": 5193,
      "ival": 5194,
      "scen": 5195,
      "sound": 5196,
      "move": 5197,
      "cus": 5198,
      "stit": 5199,
      "ben": 5200,
      "milit": 5201,
      "say": 5202,
      "half": 5203,
      "ured": 5204,
      "division": 5205,
      "iam": 5206,
      "similar": 5207,
      "augh": 5208,
      "febr": 5209,
      "february": 5210,
      "row": 5211,
      "fire": 5212,
      "sent": 5213,
      "ow": 5214,
      "sold": 5215,
      "ral": 5216,
      "period": 5217,
      "22": 5218,
      "action": 5219,
      "mich": 5220,
      "100": 5221,
      "player": 5222,
      "anim": 5223,
      "rock": 5224,
      "president": 5225,
      "vi": 5226,
      "train": 5227,
      "church": 5228,
      "round": 5229,
      "blo": 5230,
      "good": 5231,
      "prim": 5232,
      "friend": 5233,
      "cup": 5234,
      "ences": 5235,
      "ny": 5236,
      "ator": 5237,
      "europe": 5238,
      "21": 5239,
      "youn": 5240,
      "station": 5241,
      "wards": 5242,
      "university": 5243,
      "french": 5244,
      "hur": 5245,
      "take": 5246,
      "service": 5247,
      "stree": 5248,
      "gar": 5249,
      "members": 5250,
      "local": 5251,
      "role": 5252,
      "mit": 5253,
      "estab": 5254,
      "ize": 5255,
      "hun": 5256,
      "came": 5257,
      "pot": 5258,
      "dro": 5259,
      "moun": 5260,
      "fun": 5261,
      "craft": 5262,
      "ga": 5263,
      "hol": 5264,
      "2010": 5265,
      "equ": 5266,
      "23": 5267,
      "non": 5268,
      "lan": 5269,
      "ats": 5270,
      "continued": 5271,
      "tor": 5272,
      "see": 5273,
      "having": 5274,
      "key": 5275,
      "every": 5276,
      "ones": 5277,
      "never": 5278,
      "william": 5279,
      "soci": 5280,
      "prof": 5281,
      "tech": 5282,
      "ights": 5283,
      "27": 5284,
      "ently": 5285,
      "ken": 5286,
      "ged": 5287,
      "chang": 5288,
      "ides": 5289,
      "chart": 5290,
      "sol": 5291,
      "associ": 5292,
      "often": 5293,
      "belie": 5294,
      "ending": 5295,
      "ulation": 5296,
      "desp": 5297,
      "histor": 5298,
      "2008": 5299,
      "28": 5300,
      "ese": 5301,
      "court": 5302,
      "2009": 5303,
      "career": 5304,
      "geor": 5305,
      "logy": 5306,
      "net": 5307,
      "wind": 5308,
      "champion": 5309,
      "wat": 5310,
      "lat": 5311,
      "cu": 5312,
      "26": 5313,
      "2011": 5314,
      "level": 5315,
      "lu": 5316,
      "40": 5317,
      "bridge": 5318,
      "ars": 5319,
      "ds": 5320,
      "indu": 5321,
      "different": 5322,
      "ched": 5323,
      "without": 5324,
      "pho": 5325,
      "once": 5326,
      "seven": 5327,
      "wall": 5328,
      "ret": 5329,
      "western": 5330,
      "despite": 5331,
      "england": 5332,
      "rich": 5333,
      "free": 5334,
      "considered": 5335,
      "building": 5336,
      "tropical": 5337,
      "ha": 5338,
      "party": 5339,
      "app": 5340,
      "ctions": 5341,
      "pur": 5342,
      "ving": 5343,
      "author": 5344,
      "dav": 5345,
      "vent": 5346,
      "enter": 5347,
      "served": 5348,
      "development": 5349,
      "written": 5350,
      "hold": 5351,
      "2007": 5352,
      "father": 5353,
      "country": 5354,
      "stead": 5355,
      "few": 5356,
      "ural": 5357,
      "search": 5358,
      "prote": 5359,
      "county": 5360,
      "concer": 5361,
      "mp": 5362,
      "super": 5363,
      "influ": 5364,
      "trad": 5365,
      "refer": 5366,
      "royal": 5367,
      "ross": 5368,
      "songs": 5369,
      "moder": 5370,
      "els": 5371,
      "graph": 5372,
      "ices": 5373,
      "english": 5374,
      "military": 5375,
      "highway": 5376,
      "member": 5377,
      "face": 5378,
      "sug": 5379,
      "exp": 5380,
      "given": 5381,
      "phil": 5382,
      "press": 5383,
      "ref": 5384,
      "program": 5385,
      "forces": 5386,
      "elect": 5387,
      "beh": 5388,
      "dan": 5389,
      "scor": 5390,
      "2012": 5391,
      "sit": 5392,
      "eder": 5393,
      "become": 5394,
      "little": 5395,
      "lost": 5396,
      "international": 5397,
      "strong": 5398,
      "lond": 5399,
      "29": 5400,
      "hit": 5401,
      "ze": 5402,
      "coast": 5403,
      "aver": 5404,
      "how": 5405,
      "london": 5406,
      "total": 5407,
      "invol": 5408,
      "aff": 5409,
      "sto": 5410,
      "street": 5411,
      "uk": 5412,
      "body": 5413,
      "suggest": 5414,
      "front": 5415,
      "cir": 5416,
      "change": 5417,
      "announ": 5418,
      "190": 5419,
      "sun": 5420,
      "ches": 5421,
      "mad": 5422,
      "sea": 5423,
      "hour": 5424,
      "iety": 5425,
      "right": 5426,
      "close": 5427,
      "rail": 5428,
      "ery": 5429,
      "away": 5430,
      "mass": 5431,
      "gave": 5432,
      "ports": 5433,
      "popular": 5434,
      "terr": 5435,
      "canad": 5436,
      "decl": 5437,
      "published": 5438,
      "successful": 5439,
      "represent": 5440,
      "sure": 5441,
      "mix": 5442,
      "find": 5443,
      "performance": 5444,
      "ards": 5445,
      "ops": 5446,
      "project": 5447,
      "san": 5448,
      "gold": 5449,
      "produced": 5450,
      "live": 5451,
      "tw": 5452,
      "compe": 5453,
      "stated": 5454,
      "ipt": 5455,
      "fan": 5456,
      "aren": 5457,
      "suf": 5458,
      "lie": 5459,
      "returned": 5460,
      "base": 5461,
      "broad": 5462,
      "children": 5463,
      "iment": 5464,
      "ext": 5465,
      "need": 5466,
      "common": 5467,
      "struct": 5468,
      "too": 5469,
      "bs": 5470,
      "hen": 5471,
      "fail": 5472,
      "grad": 5473,
      "making": 5474,
      "mur": 5475,
      "quar": 5476,
      "fre": 5477,
      "love": 5478,
      "ink": 5479,
      "reported": 5480,
      "curren": 5481,
      "look": 5482,
      "ington": 5483,
      "xim": 5484,
      "ae": 5485,
      "interest": 5486,
      "jack": 5487,
      "recorded": 5488,
      "writing": 5489,
      "teen": 5490,
      "cul": 5491,
      "ably": 5492,
      "particular": 5493,
      "television": 5494,
      "official": 5495,
      "2006": 5496,
      "special": 5497,
      "aign": 5498,
      "ran": 5499,
      "aircraft": 5500,
      "ission": 5501,
      "dou": 5502,
      "trav": 5503,
      "cross": 5504,
      "ama": 5505,
      "ns": 5506,
      "covered": 5507,
      "campaign": 5508,
      "van": 5509,
      "studio": 5510,
      "stat": 5511,
      "should": 5512,
      "import": 5513,
      "pal": 5514,
      "include": 5515,
      "coming": 5516,
      "gn": 5517,
      "room": 5518,
      "stone": 5519,
      "upon": 5520,
      "direct": 5521,
      "critic": 5522,
      "intro": 5523,
      "central": 5524,
      "cru": 5525,
      "arm": 5526,
      "women": 5527,
      "style": 5528,
      "ston": 5529,
      "cum": 5530,
      "hurric": 5531,
      "sex": 5532,
      "destroy": 5533,
      "throughout": 5534,
      "fav": 5535,
      "hill": 5536,
      "male": 5537,
      "anted": 5538,
      "ains": 5539,
      "nal": 5540,
      "vill": 5541,
      "works": 5542,
      "mission": 5543,
      "young": 5544,
      "hard": 5545,
      "sil": 5546,
      "tar": 5547,
      "depend": 5548,
      "ying": 5549,
      "himself": 5550,
      "pit": 5551,
      "australia": 5552,
      "died": 5553,
      "2013": 5554,
      "construction": 5555,
      "hon": 5556,
      "ws": 5557,
      "iness": 5558,
      "wing": 5559,
      "depart": 5560,
      "mel": 5561,
      "clear": 5562,
      "commit": 5563,
      "introdu": 5564,
      "cop": 5565,
      "characters": 5566,
      "big": 5567,
      "vest": 5568,
      "ges": 5569,
      "ising": 5570,
      "expl": 5571,
      "eight": 5572,
      "ni": 5573,
      "cost": 5574,
      "mark": 5575,
      "located": 5576,
      "utes": 5577,
      "players": 5578,
      "scr": 5579,
      "title": 5580,
      "squad": 5581,
      "189": 5582,
      "developed": 5583,
      "acy": 5584,
      "instead": 5585,
      "60": 5586,
      "southern": 5587,
      "wa": 5588,
      "ever": 5589,
      "james": 5590,
      "race": 5591,
      "saw": 5592,
      "sat": 5593,
      "result": 5594,
      "center": 5595,
      "begin": 5596,
      "alth": 5597,
      "hall": 5598,
      "inv": 5599,
      "across": 5600,
      "grand": 5601,
      "outs": 5602,
      "ino": 5603,
      "vil": 5604,
      "remained": 5605,
      "months": 5606,
      "conne": 5607,
      "break": 5608,
      "ways": 5609,
      "activ": 5610,
      "signific": 5611,
      "cell": 5612,
      "akes": 5613,
      "dom": 5614,
      "modern": 5615,
      "political": 5616,
      "pra": 5617,
      "gress": 5618,
      "pan": 5619,
      "taken": 5620,
      "itions": 5621,
      "various": 5622,
      "ither": 5623,
      "bow": 5624,
      "fif": 5625,
      "born": 5626,
      "bul": 5627,
      "ago": 5628,
      "ability": 5629,
      "iers": 5630,
      "aster": 5631,
      "ban": 5632,
      "hurricane": 5633,
      "experi": 5634,
      "ka": 5635,
      "mm": 5636,
      "seen": 5637,
      "conf": 5638,
      "toge": 5639,
      "hot": 5640,
      "together": 5641,
      "commission": 5642,
      "felt": 5643,
      "formation": 5644,
      "ff": 5645,
      "office": 5646,
      "ibut": 5647,
      "cil": 5648,
      "ey": 5649,
      "stage": 5650,
      "america": 5651,
      "ls": 5652,
      "created": 5653,
      "erc": 5654,
      "ament": 5655,
      "miles": 5656,
      "hu": 5657,
      "bed": 5658,
      "full": 5659,
      "industr": 5660,
      "colon": 5661,
      "areas": 5662,
      "ances": 5663,
      "noted": 5664,
      "announced": 5665,
      "eventually": 5666,
      "appeared": 5667,
      "itor": 5668,
      "pain": 5669,
      "brother": 5670,
      "fight": 5671,
      "tic": 5672,
      "college": 5673,
      "george": 5674,
      "reached": 5675,
      "ming": 5676,
      "rap": 5677,
      "engine": 5678,
      "got": 5679,
      "japanese": 5680,
      "mir": 5681,
      "pression": 5682,
      "mother": 5683,
      "aval": 5684,
      "sele": 5685,
      "occur": 5686,
      "northern": 5687,
      "gree": 5688,
      "rain": 5689,
      "case": 5690,
      "2005": 5691,
      "dre": 5692,
      "gg": 5693,
      "heavy": 5694,
      "performed": 5695,
      "abo": 5696,
      "range": 5697,
      "process": 5698,
      "points": 5699,
      "civ": 5700,
      "tail": 5701,
      "followed": 5702,
      "meet": 5703,
      "pair": 5704,
      "viet": 5705,
      "sus": 5706,
      "gir": 5707,
      "iting": 5708,
      "ization": 5709,
      "sour": 5710,
      "pted": 5711,
      "bank": 5712,
      "help": 5713,
      "wide": 5714,
      "2014": 5715,
      "debut": 5716,
      "human": 5717,
      "mac": 5718,
      "mean": 5719,
      "atic": 5720,
      "section": 5721,
      "wash": 5722,
      "football": 5723,
      "antic": 5724,
      "cat": 5725,
      "treat": 5726,
      "killed": 5727,
      "ties": 5728,
      "profess": 5729,
      "significant": 5730,
      "ko": 5731,
      "mph": 5732,
      "idence": 5733,
      "playing": 5734,
      "ring": 5735,
      "han": 5736,
      "ense": 5737,
      "nes": 5738,
      "termin": 5739,
      "harr": 5740,
      "qual": 5741,
      "spr": 5742,
      "green": 5743,
      "brown": 5744,
      "current": 5745,
      "lished": 5746,
      "relation": 5747,
      "thought": 5748,
      "itive": 5749,
      "ption": 5750,
      "whe": 5751,
      "thom": 5752,
      "does": 5753,
      "ues": 5754,
      "soon": 5755,
      "wil": 5756,
      "established": 5757,
      "micha": 5758,
      "reco": 5759,
      "pie": 5760,
      "sci": 5761,
      "tru": 5762,
      "originally": 5763,
      "lines": 5764,
      "mas": 5765,
      "lower": 5766,
      "angel": 5767,
      "australian": 5768,
      "ought": 5769,
      "spir": 5770,
      "subsequ": 5771,
      "voc": 5772,
      "thre": 5773,
      "others": 5774,
      "director": 5775,
      "vin": 5776,
      "nel": 5777,
      "dem": 5778,
      "quest": 5779,
      "cred": 5780,
      "started": 5781,
      "enced": 5782,
      "entire": 5783,
      "exe": 5784,
      "david": 5785,
      "tee": 5786,
      "surv": 5787,
      "invest": 5788,
      "cret": 5789,
      "features": 5790,
      "nine": 5791,
      "econ": 5792,
      "scre": 5793,
      "aves": 5794,
      "econom": 5795,
      "decided": 5796,
      "assist": 5797,
      "business": 5798,
      "critics": 5799,
      "afric": 5800,
      "pred": 5801,
      "feet": 5802,
      "civil": 5803,
      "caused": 5804,
      "loss": 5805,
      "union": 5806,
      "80": 5807,
      "mater": 5808,
      "site": 5809,
      "jud": 5810,
      "iss": 5811,
      "ids": 5812,
      "rather": 5813,
      "fleet": 5814,
      "fourth": 5815,
      "ample": 5816,
      "opened": 5817,
      "aring": 5818,
      "added": 5819,
      "ime": 5820,
      "bc": 5821,
      "independ": 5822,
      "acc": 5823,
      "important": 5824,
      "behind": 5825,
      "exist": 5826,
      "sam": 5827,
      "radio": 5828,
      "jour": 5829,
      "magaz": 5830,
      "uses": 5831,
      "ators": 5832,
      "rid": 5833,
      "mart": 5834,
      "research": 5835,
      "medi": 5836,
      "educ": 5837,
      "here": 5838,
      "championship": 5839,
      "tra": 5840,
      "ensive": 5841,
      "anti": 5842,
      "comment": 5843,
      "impro": 5844,
      "guns": 5845,
      "ivid": 5846,
      "theast": 5847,
      "possible": 5848,
      "population": 5849,
      "space": 5850,
      "fish": 5851,
      "ply": 5852,
      "rought": 5853,
      "leading": 5854,
      "ox": 5855,
      "pract": 5856,
      "eastern": 5857,
      "completed": 5858,
      "damage": 5859,
      "novel": 5860,
      "tom": 5861,
      "logical": 5862,
      "vic": 5863,
      "leader": 5864,
      "bay": 5865,
      "ram": 5866,
      "almost": 5867,
      "thus": 5868,
      "peak": 5869,
      "bell": 5870,
      "inst": 5871,
      "bin": 5872,
      "working": 5873,
      "worked": 5874,
      "indian": 5875,
      "ky": 5876,
      "region": 5877,
      "boy": 5878,
      "michael": 5879,
      "awards": 5880,
      "initially": 5881,
      "type": 5882,
      "gal": 5883,
      "lack": 5884,
      "inj": 5885,
      "consist": 5886,
      "social": 5887,
      "kingdom": 5888,
      "die": 5889,
      "ilo": 5890,
      "2004": 5891,
      "cts": 5892,
      "oney": 5893,
      "bey": 5894,
      "los": 5895,
      "ith": 5896,
      "31": 5897,
      "lou": 5898,
      "demo": 5899,
      "bio": 5900,
      "mult": 5901,
      "midd": 5902,
      "mes": 5903,
      "proble": 5904,
      "bit": 5905,
      "forced": 5906,
      "hab": 5907,
      "attr": 5908,
      "draw": 5909,
      "itar": 5910,
      "tradition": 5911,
      "alter": 5912,
      "bon": 5913,
      "individ": 5914,
      "ceed": 5915,
      "scene": 5916,
      "70": 5917,
      "separ": 5918,
      "cult": 5919,
      "vers": 5920,
      "personal": 5921,
      "laun": 5922,
      "anch": 5923,
      "ius": 5924,
      "regular": 5925,
      "god": 5926,
      "weeks": 5927,
      "2015": 5928,
      "box": 5929,
      "france": 5930,
      "respect": 5931,
      "fig": 5932,
      "mary": 5933,
      "operation": 5934,
      "hip": 5935,
      "diffic": 5936,
      "ana": 5937,
      "rank": 5938,
      "recording": 5939,
      "towards": 5940,
      "execut": 5941,
      "term": 5942,
      "tained": 5943,
      "emplo": 5944,
      "35": 5945,
      "ray": 5946,
      "approach": 5947,
      "joined": 5948,
      "compan": 5949,
      "reve": 5950,
      "avail": 5951,
      "ris": 5952,
      "council": 5953,
      "ature": 5954,
      "ready": 5955,
      "bomb": 5956,
      "attempt": 5957,
      "chief": 5958,
      "ica": 5959,
      "wanted": 5960,
      "russ": 5961,
      "tell": 5962,
      "ata": 5963,
      "host": 5964,
      "pointed": 5965,
      "ker": 5966,
      "mith": 5967,
      "henry": 5968,
      "material": 5969,
      "goal": 5970,
      "aud": 5971,
      "rul": 5972,
      "188": 5973,
      "allowed": 5974,
      "pac": 5975,
      "ency": 5976,
      "training": 5977,
      "records": 5978,
      "navy": 5979,
      "ping": 5980,
      "recogn": 5981,
      "fly": 5982,
      "ager": 5983,
      "scored": 5984,
      "least": 5985,
      "provided": 5986,
      "bir": 5987,
      "shot": 5988,
      "counter": 5989,
      "wife": 5990,
      "quick": 5991,
      "ax": 5992,
      "asing": 5993,
      "emy": 5994,
      "crew": 5995,
      "nia": 5996,
      "brig": 5997,
      "secret": 5998,
      "claimed": 5999,
      "fund": 6000,
      "nomin": 6001,
      "feder": 6002,
      "earth": 6003,
      "dut": 6004,
      "brought": 6005,
      "average": 6006,
      "past": 6007,
      "labor": 6008,
      "priv": 6009,
      "500": 6010,
      "tempor": 6011,
      "memor": 6012,
      "know": 6013,
      "estim": 6014,
      "featured": 6015,
      "phys": 6016,
      "bird": 6017,
      "ened": 6018,
      "corpor": 6019,
      "either": 6020,
      "asy": 6021,
      "proper": 6022,
      "ville": 6023,
      "troops": 6024,
      "stop": 6025,
      "ends": 6026,
      "lap": 6027,
      "redu": 6028,
      "istic": 6029,
      "model": 6030,
      "lier": 6031,
      "regard": 6032,
      "mun": 6033,
      "summer": 6034,
      "passed": 6035,
      "fut": 6036,
      "keep": 6037,
      "victor": 6038,
      "defe": 6039,
      "hig": 6040,
      "victory": 6041,
      "bound": 6042,
      "aper": 6043,
      "pay": 6044,
      "forms": 6045,
      "castle": 6046,
      "must": 6047,
      "runs": 6048,
      "generally": 6049,
      "washington": 6050,
      "cycl": 6051,
      "captain": 6052,
      "ai": 6053,
      "span": 6054,
      "gian": 6055,
      "ister": 6056,
      "robert": 6057,
      "prison": 6058,
      "186": 6059,
      "yed": 6060,
      "igned": 6061,
      "bad": 6062,
      "ration": 6063,
      "example": 6064,
      "condu": 6065,
      "events": 6066,
      "magazine": 6067,
      "aven": 6068,
      "beat": 6069,
      "republic": 6070,
      "rac": 6071,
      "battal": 6072,
      "revol": 6073,
      "leng": 6074,
      "ake": 6075,
      "cing": 6076,
      "concl": 6077,
      "fu": 6078,
      "finished": 6079,
      "dark": 6080,
      "cali": 6081,
      "paul": 6082,
      "ention": 6083,
      "hest": 6084,
      "ony": 6085,
      "speed": 6086,
      "xic": 6087,
      "middle": 6088,
      "spo": 6089,
      "compl": 6090,
      "aut": 6091,
      "ential": 6092,
      "2003": 6093,
      "imin": 6094,
      "opening": 6095,
      "particip": 6096,
      "ades": 6097,
      "designed": 6098,
      "squadron": 6099,
      "tex": 6100,
      "hours": 6101,
      "certain": 6102,
      "media": 6103,
      "relig": 6104,
      "lot": 6105,
      "iple": 6106,
      "writer": 6107,
      "parts": 6108,
      "drop": 6109,
      "ald": 6110,
      "believed": 6111,
      "police": 6112,
      "ification": 6113,
      "ering": 6114,
      "comes": 6115,
      "bour": 6116,
      "taking": 6117,
      "stant": 6118,
      "chest": 6119,
      "suffer": 6120,
      "cou": 6121,
      "indic": 6122,
      "beginning": 6123,
      "lake": 6124,
      "hop": 6125,
      "winds": 6126,
      "available": 6127,
      "lands": 6128,
      "going": 6129,
      "replaced": 6130,
      "roman": 6131,
      "bi": 6132,
      "jer": 6133,
      "prior": 6134,
      "45": 6135,
      "75": 6136,
      "hous": 6137,
      "atl": 6138,
      "nd": 6139,
      "distric": 6140,
      "tv": 6141,
      "iction": 6142,
      "langu": 6143,
      "involved": 6144,
      "minutes": 6145,
      "erous": 6146,
      "european": 6147,
      "active": 6148,
      "emp": 6149,
      "plat": 6150,
      "earlier": 6151,
      "sey": 6152,
      "cher": 6153,
      "turned": 6154,
      "ush": 6155,
      "heart": 6156,
      "society": 6157,
      "hib": 6158,
      "staff": 6159,
      "length": 6160,
      "appearance": 6161,
      "saying": 6162,
      "respons": 6163,
      "agre": 6164,
      "commerc": 6165,
      "immedi": 6166,
      "mountain": 6167,
      "lord": 6168,
      "stre": 6169,
      "2000": 6170,
      "lik": 6171,
      "ida": 6172,
      "association": 6173,
      "nu": 6174,
      "news": 6175,
      "gs": 6176,
      "administ": 6177,
      "largest": 6178,
      "deal": 6179,
      "highest": 6180,
      "particularly": 6181,
      "films": 6182,
      "scott": 6183,
      "issue": 6184,
      "asked": 6185,
      "smith": 6186,
      "achie": 6187,
      "cks": 6188,
      "meas": 6189,
      "better": 6190,
      "aled": 6191,
      "percent": 6192,
      "virgin": 6193,
      "2001": 6194,
      "typ": 6195,
      "icle": 6196,
      "mou": 6197,
      "mach": 6198,
      "lear": 6199,
      "plot": 6200,
      "reason": 6201,
      "daugh": 6202,
      "date": 6203,
      "cam": 6204,
      "90": 6205,
      "guard": 6206,
      "graphy": 6207,
      "outside": 6208,
      "ather": 6209,
      "native": 6210,
      "tou": 6211,
      "ument": 6212,
      "tries": 6213,
      "units": 6214,
      "promo": 6215,
      "weak": 6216,
      "charles": 6217,
      "fit": 6218,
      "thomas": 6219,
      "infan": 6220,
      "signed": 6221,
      "increased": 6222,
      "anned": 6223,
      "pul": 6224,
      "feel": 6225,
      "load": 6226,
      "fest": 6227,
      "dig": 6228,
      "praised": 6229,
      "reviews": 6230,
      "community": 6231,
      "acad": 6232,
      "pressed": 6233,
      "audi": 6234,
      "motion": 6235,
      "da": 6236,
      "pected": 6237,
      "ateg": 6238,
      "governor": 6239,
      "future": 6240,
      "era": 6241,
      "califor": 6242,
      "coach": 6243,
      "ored": 6244,
      "ike": 6245,
      "mic": 6246,
      "liter": 6247,
      "ci": 6248,
      "above": 6249,
      "relationship": 6250,
      "broadcast": 6251,
      "additional": 6252,
      "2002": 6253,
      "agon": 6254,
      "theat": 6255,
      "ordered": 6256,
      "ape": 6257,
      "enough": 6258,
      "peter": 6259,
      "ples": 6260,
      "natural": 6261,
      "usually": 6262,
      "guitar": 6263,
      "ried": 6264,
      "canada": 6265,
      "lay": 6266,
      "complete": 6267,
      "stra": 6268,
      "acqu": 6269,
      "domin": 6270,
      "anal": 6271,
      "viol": 6272,
      "iding": 6273,
      "give": 6274,
      "infantry": 6275,
      "acted": 6276,
      "standing": 6277,
      "access": 6278,
      "previously": 6279,
      "constit": 6280,
      "capt": 6281,
      "accoun": 6282,
      "dead": 6283,
      "resident": 6284,
      "tax": 6285,
      "rights": 6286,
      "told": 6287,
      "musical": 6288,
      "ded": 6289,
      "ayed": 6290,
      "ilities": 6291,
      "minor": 6292,
      "occup": 6293,
      "chap": 6294,
      "critical": 6295,
      "committee": 6296,
      "richard": 6297,
      "ener": 6298,
      "metres": 6299,
      "instit": 6300,
      "premi": 6301,
      "elements": 6302,
      "threat": 6303,
      "lee": 6304,
      "defin": 6305,
      "positive": 6306,
      "argu": 6307,
      "dev": 6308,
      "imp": 6309,
      "california": 6310,
      "colum": 6311,
      "emer": 6312,
      "recent": 6313,
      "amoun": 6314,
      "woman": 6315,
      "ases": 6316,
      "explo": 6317,
      "arily": 6318,
      "ference": 6319,
      "food": 6320,
      "appointed": 6321,
      "word": 6322,
      "pow": 6323,
      "report": 6324,
      "berg": 6325,
      "background": 6326,
      "asse": 6327,
      "money": 6328,
      "pec": 6329,
      "travel": 6330,
      "contribut": 6331,
      "difficult": 6332,
      "female": 6333,
      "spent": 6334,
      "bers": 6335,
      "blue": 6336,
      "phy": 6337,
      "iff": 6338,
      "rup": 6339,
      "alex": 6340,
      "overall": 6341,
      "groups": 6342,
      "screen": 6343,
      "reser": 6344,
      "photo": 6345,
      "frank": 6346,
      "directed": 6347,
      "pun": 6348,
      "flood": 6349,
      "structure": 6350,
      "lor": 6351,
      "ctive": 6352,
      "perform": 6353,
      "tun": 6354,
      "nation": 6355,
      "exten": 6356,
      "barr": 6357,
      "interview": 6358,
      "failed": 6359,
      "poor": 6360,
      "onto": 6361,
      "square": 6362,
      "health": 6363,
      "reng": 6364,
      "prepar": 6365,
      "prob": 6366,
      "required": 6367,
      "hap": 6368,
      "lad": 6369,
      "yard": 6370,
      "usion": 6371,
      "ara": 6372,
      "len": 6373,
      "fant": 6374,
      "germany": 6375,
      "appl": 6376,
      "respond": 6377,
      "district": 6378,
      "187": 6379,
      "india": 6380,
      "christian": 6381,
      "card": 6382,
      "limited": 6383,
      "wit": 6384,
      "actions": 6385,
      "zer": 6386,
      "itself": 6387,
      "science": 6388,
      "battalion": 6389,
      "evidence": 6390,
      "sometimes": 6391,
      "frequ": 6392,
      "vert": 6393,
      "changes": 6394,
      "tured": 6395,
      "seem": 6396,
      "deep": 6397,
      "ibility": 6398,
      "introduced": 6399,
      "odes": 6400,
      "rating": 6401,
      "commercial": 6402,
      "reception": 6403,
      "contract": 6404,
      "transfer": 6405,
      "streng": 6406,
      "idea": 6407,
      "ultim": 6408,
      "election": 6409,
      "course": 6410,
      "investig": 6411,
      "iii": 6412,
      "clim": 6413,
      "tu": 6414,
      "gard": 6415,
      "except": 6416,
      "turning": 6417,
      "stars": 6418,
      "ien": 6419,
      "study": 6420,
      "lam": 6421,
      "living": 6422,
      "exper": 6423,
      "flight": 6424,
      "flow": 6425,
      "bud": 6426,
      "score": 6427,
      "igan": 6428,
      "whose": 6429,
      "burg": 6430,
      "mexic": 6431,
      "avo": 6432,
      "defeated": 6433,
      "already": 6434,
      "cit": 6435,
      "situ": 6436,
      "nar": 6437,
      "approxim": 6438,
      "worth": 6439,
      "agree": 6440,
      "muse": 6441,
      "compet": 6442,
      "onse": 6443,
      "flor": 6444,
      "va": 6445,
      "education": 6446,
      "chic": 6447,
      "queen": 6448,
      "names": 6449,
      "bot": 6450,
      "whom": 6451,
      "chester": 6452,
      "might": 6453,
      "minister": 6454,
      "forest": 6455,
      "changed": 6456,
      "hosp": 6457,
      "students": 6458,
      "kets": 6459,
      "sand": 6460,
      "quickly": 6461,
      "slow": 6462,
      "entertain": 6463,
      "hero": 6464,
      "transport": 6465,
      "hood": 6466,
      "effects": 6467,
      "favor": 6468,
      "33": 6469,
      "surface": 6470,
      "gas": 6471,
      "cele": 6472,
      "erson": 6473,
      "ching": 6474,
      "movement": 6475,
      "oly": 6476,
      "tracks": 6477,
      "response": 6478,
      "subject": 6479,
      "prevent": 6480,
      "cm": 6481,
      "plant": 6482,
      "scenes": 6483,
      "girl": 6484,
      "commander": 6485,
      "horse": 6486,
      "greg": 6487,
      "aining": 6488,
      "your": 6489,
      "moving": 6490,
      "decision": 6491,
      "adap": 6492,
      "department": 6493,
      "fifth": 6494,
      "arrived": 6495,
      "agreed": 6496,
      "espec": 6497,
      "centre": 6498,
      "sons": 6499,
      "britain": 6500,
      "join": 6501,
      "likely": 6502,
      "fair": 6503,
      "related": 6504,
      "museum": 6505,
      "especially": 6506,
      "services": 6507,
      "teams": 6508,
      "consider": 6509,
      "blood": 6510,
      "quarter": 6511,
      "depression": 6512,
      "trial": 6513,
      "chan": 6514,
      "text": 6515,
      "suit": 6516,
      "iel": 6517,
      "tho": 6518,
      "operations": 6519,
      "voice": 6520,
      "village": 6521,
      "tons": 6522,
      "parli": 6523,
      "shows": 6524,
      "object": 6525,
      "wel": 6526,
      "fell": 6527,
      "nings": 6528,
      "nic": 6529,
      "estimated": 6530,
      "industry": 6531,
      "lyric": 6532,
      "larger": 6533,
      "flag": 6534,
      "aint": 6535,
      "becoming": 6536,
      "listed": 6537,
      "size": 6538,
      "cting": 6539,
      "36": 6540,
      "carried": 6541,
      "docum": 6542,
      "daughter": 6543,
      "latter": 6544,
      "remaining": 6545,
      "pil": 6546,
      "discus": 6547,
      "legal": 6548,
      "establish": 6549,
      "polic": 6550,
      "episodes": 6551,
      "parliament": 6552,
      "married": 6553,
      "cape": 6554,
      "naval": 6555,
      "rate": 6556,
      "glo": 6557,
      "eds": 6558,
      "pressure": 6559,
      "running": 6560,
      "37": 6561,
      "1999": 6562,
      "spring": 6563,
      "upper": 6564,
      "winter": 6565,
      "princ": 6566,
      "brief": 6567,
      "surround": 6568,
      "cand": 6569,
      "complet": 6570,
      "via": 6571,
      "cree": 6572,
      "syn": 6573,
      "chall": 6574,
      "kr": 6575,
      "leaving": 6576,
      "winning": 6577,
      "entered": 6578,
      "virginia": 6579,
      "atory": 6580,
      "paren": 6581,
      "aging": 6582,
      "sess": 6583,
      "ll": 6584,
      "equip": 6585,
      "pose": 6586,
      "temporary": 6587,
      "suggested": 6588,
      "secur": 6589,
      "ander": 6590,
      "tural": 6591,
      "nearly": 6592,
      "prin": 6593,
      "books": 6594,
      "influence": 6595,
      "approximately": 6596,
      "icted": 6597,
      "occas": 6598,
      "twent": 6599,
      "location": 6600,
      "experience": 6601,
      "ses": 6602,
      "capital": 6603,
      "iation": 6604,
      "regiment": 6605,
      "deb": 6606,
      "language": 6607,
      "stad": 6608,
      "hi": 6609,
      "shortly": 6610,
      "empire": 6611,
      "islands": 6612,
      "federal": 6613,
      "envir": 6614,
      "38": 6615,
      "today": 6616,
      "forward": 6617,
      "network": 6618,
      "jackson": 6619,
      "finally": 6620,
      "mixed": 6621,
      "tery": 6622,
      "mr": 6623,
      "grow": 6624,
      "aries": 6625,
      "sky": 6626,
      "detail": 6627,
      "purch": 6628,
      "shire": 6629,
      "louis": 6630,
      "meth": 6631,
      "err": 6632,
      "destroyed": 6633,
      "proposed": 6634,
      "pon": 6635,
      "32": 6636,
      "ging": 6637,
      "bring": 6638,
      "49": 6639,
      "ams": 6640,
      "nature": 6641,
      "producer": 6642,
      "manager": 6643,
      "olymp": 6644,
      "higher": 6645,
      "aker": 6646,
      "spanish": 6647,
      "corps": 6648,
      "intended": 6649,
      "master": 6650,
      "environ": 6651,
      "selves": 6652,
      "professional": 6653,
      "create": 6654,
      "unit": 6655,
      "pts": 6656,
      "color": 6657,
      "provide": 6658,
      "subsequently": 6659,
      "democr": 6660,
      "captured": 6661,
      "brigade": 6662,
      "iron": 6663,
      "battles": 6664,
      "railway": 6665,
      "supported": 6666,
      "fully": 6667,
      "ays": 6668,
      "complex": 6669,
      "journal": 6670,
      "friends": 6671,
      "compared": 6672,
      "fill": 6673,
      "done": 6674,
      "jim": 6675,
      "immediately": 6676,
      "ishing": 6677,
      "temper": 6678,
      "fans": 6679,
      "block": 6680,
      "actor": 6681,
      "mouth": 6682,
      "private": 6683,
      "expected": 6684,
      "soviet": 6685,
      "kar": 6686,
      "inese": 6687,
      "liber": 6688,
      "birth": 6689,
      "py": 6690,
      "scient": 6691,
      "weap": 6692,
      "yet": 6693,
      "planned": 6694,
      "comb": 6695,
      "edward": 6696,
      "agement": 6697,
      "archite": 6698,
      "feature": 6699,
      "initial": 6700,
      "stan": 6701,
      "increasing": 6702,
      "awarded": 6703,
      "ya": 6704,
      "chinese": 6705,
      "chicago": 6706,
      "closed": 6707,
      "whether": 6708,
      "icles": 6709,
      "helped": 6710,
      "legis": 6711,
      "haw": 6712,
      "acting": 6713,
      "ull": 6714,
      "comed": 6715,
      "marked": 6716,
      "ado": 6717,
      "fast": 6718,
      "ribut": 6719,
      "officer": 6720,
      "1998": 6721,
      "jose": 6722,
      "secut": 6723,
      "trade": 6724,
      "issued": 6725,
      "bury": 6726,
      "arg": 6727,
      "cel": 6728,
      "soldiers": 6729,
      "kin": 6730,
      "dance": 6731,
      "bish": 6732,
      "longer": 6733,
      "buildings": 6734,
      "mig": 6735,
      "sail": 6736,
      "prince": 6737,
      "185": 6738,
      "billboard": 6739,
      "insp": 6740,
      "nick": 6741,
      "conserv": 6742,
      "positions": 6743,
      "cause": 6744,
      "rang": 6745,
      "teach": 6746,
      "acts": 6747,
      "valley": 6748,
      "phen": 6749,
      "plans": 6750,
      "dol": 6751,
      "34": 6752,
      "300": 6753,
      "relat": 6754,
      "intens": 6755,
      "associated": 6756,
      "kore": 6757,
      "gins": 6758,
      "instr": 6759,
      "standard": 6760,
      "something": 6761,
      "distribut": 6762,
      "ipal": 6763,
      "martin": 6764,
      "ordin": 6765,
      "step": 6766,
      "officers": 6767,
      "atlantic": 6768,
      "auto": 6769,
      "oh": 6770,
      "pacific": 6771,
      "remains": 6772,
      "mostly": 6773,
      "exam": 6774,
      "singles": 6775,
      "1st": 6776,
      "trib": 6777,
      "johnson": 6778,
      "defeat": 6779,
      "kilo": 6780,
      "pict": 6781,
      "thr": 6782,
      "themselves": 6783,
      "want": 6784,
      "franc": 6785,
      "oce": 6786,
      "demon": 6787,
      "stic": 6788,
      "gue": 6789,
      "countries": 6790,
      "lyrics": 6791,
      "extended": 6792,
      "information": 6793,
      "visit": 6794,
      "ender": 6795,
      "48": 6796,
      "probably": 6797,
      "anna": 6798,
      "really": 6799,
      "tank": 6800,
      "ona": 6801,
      "traf": 6802,
      "market": 6803,
      "ises": 6804,
      "habit": 6805,
      "financ": 6806,
      "saur": 6807,
      "numerous": 6808,
      "sett": 6809,
      "dies": 6810,
      "repe": 6811,
      "singer": 6812,
      "mont": 6813,
      "china": 6814,
      "appears": 6815,
      "ula": 6816,
      "admir": 6817,
      "hus": 6818,
      "awn": 6819,
      "dun": 6820,
      "marine": 6821,
      "portr": 6822,
      "copies": 6823,
      "sor": 6824,
      "always": 6825,
      "aught": 6826,
      "scot": 6827,
      "kind": 6828,
      "demand": 6829,
      "request": 6830,
      "mitted": 6831,
      "cham": 6832,
      "affe": 6833,
      "issues": 6834,
      "lock": 6835,
      "amed": 6836,
      "goals": 6837,
      "individual": 6838,
      "sales": 6839,
      "thes": 6840,
      "uni": 6841,
      "zo": 6842,
      "psy": 6843,
      "energy": 6844,
      "1997": 6845,
      "conference": 6846,
      "edge": 6847,
      "leave": 6848,
      "artist": 6849,
      "congress": 6850,
      "andon": 6851,
      "status": 6852,
      "includes": 6853,
      "takes": 6854,
      "ye": 6855,
      "neg": 6856,
      "suffered": 6857,
      "jected": 6858,
      "mess": 6859,
      "maxim": 6860,
      "edition": 6861,
      "hospital": 6862,
      "yards": 6863,
      "weight": 6864,
      "39": 6865,
      "bass": 6866,
      "movie": 6867,
      "expand": 6868,
      "florida": 6869,
      "problems": 6870,
      "spl": 6871,
      "inspired": 6872,
      "albums": 6873,
      "meeting": 6874,
      "drum": 6875,
      "loy": 6876,
      "sir": 6877,
      "47": 6878,
      "fighting": 6879,
      "attacks": 6880,
      "spect": 6881,
      "letter": 6882,
      "revolution": 6883,
      "double": 6884,
      "bond": 6885,
      "script": 6886,
      "wild": 6887,
      "stock": 6888,
      "increase": 6889,
      "confir": 6890,
      "uded": 6891,
      "independent": 6892,
      "removed": 6893,
      "makes": 6894,
      "geo": 6895,
      "metal": 6896,
      "icket": 6897,
      "celebr": 6898,
      "minute": 6899,
      "creek": 6900,
      "texas": 6901,
      "fox": 6902,
      "forts": 6903,
      "method": 6904,
      "refle": 6905,
      "pool": 6906,
      "portion": 6907,
      "andre": 6908,
      "offered": 6909,
      "foreign": 6910,
      "cruis": 6911,
      "majority": 6912,
      "terms": 6913,
      "rd": 6914,
      "primary": 6915,
      "ena": 6916,
      "dv": 6917,
      "veh": 6918,
      "words": 6919,
      "shoot": 6920,
      "impact": 6921,
      "oil": 6922,
      "combat": 6923,
      "restr": 6924,
      "thur": 6925,
      "males": 6926,
      "alle": 6927,
      "adop": 6928,
      "composed": 6929,
      "dail": 6930,
      "sell": 6931,
      "discovered": 6932,
      "ift": 6933,
      "peace": 6934,
      "wis": 6935,
      "culture": 6936,
      "wid": 6937,
      "assigned": 6938,
      "breed": 6939,
      "ranked": 6940,
      "convent": 6941,
      "carol": 6942,
      "entertainment": 6943,
      "giving": 6944,
      "think": 6945,
      "concept": 6946,
      "uck": 6947,
      "thir": 6948,
      "figh": 6949,
      "smo": 6950,
      "sar": 6951,
      "damaged": 6952,
      "raised": 6953,
      "environment": 6954,
      "plays": 6955,
      "ost": 6956,
      "ask": 6957,
      "ously": 6958,
      "canadian": 6959,
      "categ": 6960,
      "africa": 6961,
      "ustr": 6962,
      "shar": 6963,
      "ication": 6964,
      "cere": 6965,
      "selected": 6966,
      "daily": 6967,
      "miss": 6968,
      "sof": 6969,
      "wrest": 6970,
      "cyclone": 6971,
      "sports": 6972,
      "techno": 6973,
      "revealed": 6974,
      "mob": 6975,
      "necess": 6976,
      "morning": 6977,
      "promis": 6978,
      "piece": 6979,
      "schol": 6980,
      "rated": 6981,
      "marri": 6982,
      "kent": 6983,
      "ocean": 6984,
      "elled": 6985,
      "conditions": 6986,
      "ners": 6987,
      "russian": 6988,
      "heav": 6989,
      "chair": 6990,
      "architect": 6991,
      "inside": 6992,
      "46": 6993,
      "twenty": 6994,
      "manu": 6995,
      "lived": 6996,
      "attacked": 6997,
      "swe": 6998,
      "notes": 6999,
      "constructed": 7000,
      "unable": 7001,
      "pet": 7002,
      "sched": 7003,
      "launched": 7004,
      "onna": 7005,
      "uries": 7006,
      "northeast": 7007,
      "greater": 7008,
      "bob": 7009,
      "safe": 7010,
      "houses": 7011,
      "respectively": 7012,
      "angeles": 7013,
      "evol": 7014,
      "writers": 7015,
      "whole": 7016,
      "sister": 7017,
      "confl": 7018,
      "gely": 7019,
      "needed": 7020,
      "ioned": 7021,
      "1995": 7022,
      "numbers": 7023,
      "gall": 7024,
      "below": 7025,
      "traditional": 7026,
      "stein": 7027,
      "smaller": 7028,
      "wish": 7029,
      "boat": 7030,
      "electric": 7031,
      "bol": 7032,
      "cepted": 7033,
      "icated": 7034,
      "francis": 7035,
      "advance": 7036,
      "religious": 7037,
      "famil": 7038,
      "contains": 7039,
      "2nd": 7040,
      "attempted": 7041,
      "shown": 7042,
      "ov": 7043,
      "gradu": 7044,
      "occurred": 7045,
      "newsp": 7046,
      "wound": 7047,
      "inch": 7048,
      "improve": 7049,
      "rose": 7050,
      "festival": 7051,
      "gam": 7052,
      "elected": 7053,
      "distin": 7054,
      "annual": 7055,
      "rein": 7056,
      "rare": 7057,
      "tower": 7058,
      "collection": 7059,
      "chem": 7060,
      "2016": 7061,
      "guest": 7062,
      "19th": 7063,
      "lon": 7064,
      "1996": 7065,
      "referred": 7066,
      "1950": 7067,
      "silver": 7068,
      "olic": 7069,
      "produce": 7070,
      "neigh": 7071,
      "izing": 7072,
      "dar": 7073,
      "gate": 7074,
      "cab": 7075,
      "anced": 7076,
      "theme": 7077,
      "amount": 7078,
      "crow": 7079,
      "replace": 7080,
      "render": 7081,
      "ira": 7082,
      "schools": 7083,
      "italian": 7084,
      "jac": 7085,
      "ify": 7086,
      "constant": 7087,
      "audience": 7088,
      "stom": 7089,
      "arts": 7090,
      "resulted": 7091,
      "largely": 7092,
      "cath": 7093,
      "uals": 7094,
      "kept": 7095,
      "economic": 7096,
      "tion": 7097,
      "slight": 7098,
      "aust": 7099,
      "verse": 7100,
      "tournam": 7101,
      "ski": 7102,
      "contro": 7103,
      "variety": 7104,
      "sumed": 7105,
      "earned": 7106,
      "stream": 7107,
      "1994": 7108,
      "competition": 7109,
      "starting": 7110,
      "prime": 7111,
      "philip": 7112,
      "ech": 7113,
      "bia": 7114,
      "stadium": 7115,
      "scul": 7116,
      "document": 7117,
      "commented": 7118,
      "sec": 7119,
      "aland": 7120,
      "55": 7121,
      "rapid": 7122,
      "attention": 7123,
      "performances": 7124,
      "za": 7125,
      "protest": 7126,
      "camer": 7127,
      "quarters": 7128,
      "ssing": 7129,
      "extre": 7130,
      "michigan": 7131,
      "install": 7132,
      "trail": 7133,
      "refused": 7134,
      "imper": 7135,
      "atest": 7136,
      "sexual": 7137,
      "pic": 7138,
      "adel": 7139,
      "180": 7140,
      "traffic": 7141,
      "stories": 7142,
      "ja": 7143,
      "enjo": 7144,
      "greatest": 7145,
      "penn": 7146,
      "beth": 7147,
      "wales": 7148,
      "ening": 7149,
      "things": 7150,
      "direction": 7151,
      "declared": 7152,
      "matches": 7153,
      "focus": 7154,
      "serious": 7155,
      "iption": 7156,
      "defense": 7157,
      "ug": 7158,
      "marriage": 7159,
      "drew": 7160,
      "bes": 7161,
      "ume": 7162,
      "promin": 7163,
      "path": 7164,
      "meant": 7165,
      "cry": 7166,
      "ination": 7167,
      "inner": 7168,
      "touch": 7169,
      "concert": 7170,
      "vocals": 7171,
      "ki": 7172,
      "uss": 7173,
      "44": 7174,
      "hundr": 7175,
      "abandon": 7176,
      "resist": 7177,
      "weather": 7178,
      "chann": 7179,
      "doctor": 7180,
      "rio": 7181,
      "wol": 7182,
      "levels": 7183,
      "chron": 7184,
      "aware": 7185,
      "pret": 7186,
      "murder": 7187,
      "apo": 7188,
      "fal": 7189,
      "rit": 7190,
      "nearby": 7191,
      "cases": 7192,
      "lane": 7193,
      "practice": 7194,
      "organization": 7195,
      "marsh": 7196,
      "northwest": 7197,
      "mul": 7198,
      "itory": 7199,
      "shi": 7200,
      "aur": 7201,
      "uter": 7202,
      "windo": 7203,
      "emper": 7204,
      "gil": 7205,
      "uten": 7206,
      "ibly": 7207,
      "pin": 7208,
      "ips": 7209,
      "determin": 7210,
      "medical": 7211,
      "source": 7212,
      "farm": 7213,
      "fantasy": 7214,
      "beach": 7215,
      "dvd": 7216,
      "eye": 7217,
      "candid": 7218,
      "sn": 7219,
      "sides": 7220,
      "1992": 7221,
      "honor": 7222,
      "admiral": 7223,
      "incorpor": 7224,
      "vocal": 7225,
      "spot": 7226,
      "invas": 7227,
      "favour": 7228,
      "grant": 7229,
      "separate": 7230,
      "systems": 7231,
      "65": 7232,
      "highly": 7233,
      "settle": 7234,
      "birds": 7235,
      "continue": 7236,
      "means": 7237,
      "arab": 7238,
      "syl": 7239,
      "theatre": 7240,
      "pack": 7241,
      "pick": 7242,
      "jam": 7243,
      "iest": 7244,
      "southeast": 7245,
      "rule": 7246,
      "lis": 7247,
      "mexico": 7248,
      "ulated": 7249,
      "ump": 7250,
      "charge": 7251,
      "og": 7252,
      "rick": 7253,
      "mechan": 7254,
      "mod": 7255,
      "observ": 7256,
      "urban": 7257,
      "prop": 7258,
      "zealand": 7259,
      "mile": 7260,
      "specific": 7261,
      "executive": 7262,
      "exhib": 7263,
      "directly": 7264,
      "bishop": 7265,
      "rey": 7266,
      "ultimately": 7267,
      "burn": 7268,
      "nest": 7269,
      "passing": 7270,
      "reduced": 7271,
      "ding": 7272,
      "presented": 7273,
      "sav": 7274,
      "drive": 7275,
      "african": 7276,
      "effort": 7277,
      "libr": 7278,
      "kes": 7279,
      "multiple": 7280,
      "sive": 7281,
      "coal": 7282,
      "brad": 7283,
      "attended": 7284,
      "tried": 7285,
      "ito": 7286,
      "20th": 7287,
      "yel": 7288,
      "memorial": 7289,
      "efforts": 7290,
      "chris": 7291,
      "animals": 7292,
      "bled": 7293,
      "1930": 7294,
      "mut": 7295,
      "symb": 7296,
      "advent": 7297,
      "quality": 7298,
      "wealth": 7299,
      "serve": 7300,
      "studies": 7301,
      "stating": 7302,
      "allied": 7303,
      "responsible": 7304,
      "function": 7305,
      "accepted": 7306,
      "lieuten": 7307,
      "financial": 7308,
      "border": 7309,
      "thro": 7310,
      "progress": 7311,
      "dor": 7312,
      "mand": 7313,
      "madonna": 7314,
      "incident": 7315,
      "400": 7316,
      "1993": 7317,
      "ceremon": 7318,
      "lic": 7319,
      "1991": 7320,
      "restor": 7321,
      "creation": 7322,
      "sole": 7323,
      "itation": 7324,
      "founded": 7325,
      "begins": 7326,
      "setting": 7327,
      "true": 7328,
      "saint": 7329,
      "enemy": 7330,
      "vey": 7331,
      "ems": 7332,
      "thick": 7333,
      "yer": 7334,
      "nov": 7335,
      "happ": 7336,
      "95": 7337,
      "scale": 7338,
      "scotland": 7339,
      "meaning": 7340,
      "jones": 7341,
      "eth": 7342,
      "hl": 7343,
      "possess": 7344,
      "planet": 7345,
      "write": 7346,
      "zz": 7347,
      "airport": 7348,
      "arrest": 7349,
      "illery": 7350,
      "managed": 7351,
      "flying": 7352,
      "parents": 7353,
      "advis": 7354,
      "fat": 7355,
      "paid": 7356,
      "companies": 7357,
      "roads": 7358,
      "folk": 7359,
      "activity": 7360,
      "iance": 7361,
      "fellow": 7362,
      "iate": 7363,
      "painting": 7364,
      "greek": 7365,
      "arms": 7366,
      "resulting": 7367,
      "tournament": 7368,
      "excl": 7369,
      "ficient": 7370,
      "cub": 7371,
      "thous": 7372,
      "broke": 7373,
      "rum": 7374,
      "dropped": 7375,
      "titled": 7376,
      "agu": 7377,
      "lieutenant": 7378,
      "academy": 7379,
      "showed": 7380,
      "enn": 7381,
      "eigh": 7382,
      "simp": 7383,
      "allowing": 7384,
      "authority": 7385,
      "policy": 7386,
      "exped": 7387,
      "resol": 7388,
      "combined": 7389,
      "ert": 7390,
      "secretary": 7391,
      "emperor": 7392,
      "armed": 7393,
      "plane": 7394,
      "thin": 7395,
      "strugg": 7396,
      "artillery": 7397,
      "mind": 7398,
      "ceeded": 7399,
      "administration": 7400,
      "spirit": 7401,
      "williams": 7402,
      "continues": 7403,
      "solo": 7404,
      "inches": 7405,
      "slo": 7406,
      "passeng": 7407,
      "rev": 7408,
      "kings": 7409,
      "property": 7410,
      "colour": 7411,
      "ites": 7412,
      "subsequent": 7413,
      "artists": 7414,
      "matic": 7415,
      "calling": 7416,
      "contemporary": 7417,
      "ulf": 7418,
      "attempts": 7419,
      "ti": 7420,
      "content": 7421,
      "isation": 7422,
      "territory": 7423,
      "rot": 7424,
      "accept": 7425,
      "grade": 7426,
      "account": 7427,
      "cold": 7428,
      "cities": 7429,
      "selling": 7430,
      "ali": 7431,
      "leon": 7432,
      "rush": 7433,
      "machine": 7434,
      "behav": 7435,
      "oth": 7436,
      "pilot": 7437,
      "potential": 7438,
      "une": 7439,
      "presence": 7440,
      "image": 7441,
      "egy": 7442,
      "viewers": 7443,
      "voy": 7444,
      "sac": 7445,
      "divided": 7446,
      "studios": 7447,
      "ada": 7448,
      "tree": 7449,
      "sixth": 7450,
      "thousand": 7451,
      "tam": 7452,
      "sequence": 7453,
      "78": 7454,
      "officials": 7455,
      "conducted": 7456,
      "1942": 7457,
      "ano": 7458,
      "hat": 7459,
      "ody": 7460,
      "digital": 7461,
      "maintain": 7462,
      "job": 7463,
      "repair": 7464,
      "propos": 7465,
      "dome": 7466,
      "elle": 7467,
      "contrast": 7468,
      "map": 7469,
      "aga": 7470,
      "filming": 7471,
      "figure": 7472,
      "brand": 7473,
      "64": 7474,
      "defence": 7475,
      "opport": 7476,
      "temple": 7477,
      "recomm": 7478,
      "bles": 7479,
      "owned": 7480,
      "collabor": 7481,
      "latin": 7482,
      "twel": 7483,
      "transferred": 7484,
      "wed": 7485,
      "scoring": 7486,
      "sin": 7487,
      "mond": 7488,
      "senior": 7489,
      "maximum": 7490,
      "hors": 7491,
      "wise": 7492,
      "ku": 7493,
      "pedo": 7494,
      "demonstr": 7495,
      "yan": 7496,
      "joseph": 7497,
      "ications": 7498,
      "beaut": 7499,
      "featuring": 7500,
      "opportun": 7501,
      "seconds": 7502,
      "therefore": 7503,
      "primarily": 7504,
      "security": 7505,
      "faced": 7506,
      "patter": 7507,
      "strength": 7508,
      "oxford": 7509,
      "relatively": 7510,
      "theory": 7511,
      "student": 7512,
      "peaked": 7513,
      "actors": 7514,
      "apart": 7515,
      "yellow": 7516,
      "arthur": 7517,
      "dise": 7518,
      "torpedo": 7519,
      "becomes": 7520,
      "kel": 7521,
      "accident": 7522,
      "starr": 7523,
      "actually": 7524,
      "pi": 7525,
      "cert": 7526,
      "mann": 7527,
      "distance": 7528,
      "physical": 7529,
      "management": 7530,
      "battleship": 7531,
      "sr": 7532,
      "hair": 7533,
      "concluded": 7534,
      "citiz": 7535,
      "boston": 7536,
      "share": 7537,
      "draft": 7538,
      "conver": 7539,
      "41": 7540,
      "table": 7541,
      "manchester": 7542,
      "shell": 7543,
      "invasion": 7544,
      "sions": 7545,
      "observed": 7546,
      "76": 7547,
      "harrison": 7548,
      "situation": 7549,
      "suppl": 7550,
      "tan": 7551,
      "alleg": 7552,
      "contest": 7553,
      "armor": 7554,
      "egypt": 7555,
      "brid": 7556,
      "prise": 7557,
      "affair": 7558,
      "gi": 7559,
      "sust": 7560,
      "identified": 7561,
      "alongside": 7562,
      "swed": 7563,
      "results": 7564,
      "concent": 7565,
      "personnel": 7566,
      "liver": 7567,
      "rical": 7568,
      "alone": 7569,
      "ressed": 7570,
      "extr": 7571,
      "42": 7572,
      "benef": 7573,
      "sources": 7574,
      "paper": 7575,
      "arent": 7576,
      "1944": 7577,
      "istics": 7578,
      "stay": 7579,
      "slightly": 7580,
      "express": 7581,
      "returning": 7582,
      "owner": 7583,
      "historical": 7584,
      "missed": 7585,
      "agreement": 7586,
      "85": 7587,
      "pian": 7588,
      "inte": 7589,
      "imperial": 7590,
      "kir": 7591,
      "kg": 7592,
      "anger": 7593,
      "historian": 7594,
      "paris": 7595,
      "cultural": 7596,
      "dog": 7597,
      "push": 7598,
      "versions": 7599,
      "150": 7600,
      "chi": 7601,
      "types": 7602,
      "43": 7603,
      "crash": 7604,
      "minim": 7605,
      "else": 7606,
      "ari": 7607,
      "atives": 7608,
      "vessel": 7609,
      "influenced": 7610,
      "appoint": 7611,
      "nothing": 7612,
      "bbc": 7613,
      "freed": 7614,
      "orders": 7615,
      "struck": 7616,
      "places": 7617,
      "soundtrack": 7618,
      "innings": 7619,
      "core": 7620,
      "custom": 7621,
      "nominated": 7622,
      "isions": 7623,
      "stal": 7624,
      "completely": 7625,
      "athlet": 7626,
      "metro": 7627,
      "drawn": 7628,
      "confirmed": 7629,
      "residents": 7630,
      "ellig": 7631,
      "si": 7632,
      "promoted": 7633,
      "comedy": 7634,
      "designated": 7635,
      "1990": 7636,
      "door": 7637,
      "crown": 7638,
      "commissioned": 7639,
      "attend": 7640,
      "gill": 7641,
      "iced": 7642,
      "exc": 7643,
      "preser": 7644,
      "astic": 7645,
      "oso": 7646,
      "intellig": 7647,
      "croat": 7648,
      "gets": 7649,
      "conflict": 7650,
      "shel": 7651,
      "avenue": 7652,
      "capture": 7653,
      "iza": 7654,
      "sense": 7655,
      "powerful": 7656,
      "mainly": 7657,
      "wy": 7658,
      "floor": 7659,
      "waters": 7660,
      "atom": 7661,
      "prec": 7662,
      "charts": 7663,
      "orche": 7664,
      "sought": 7665,
      "nit": 7666,
      "shap": 7667,
      "seasons": 7668,
      "1920": 7669,
      "opin": 7670,
      "stephen": 7671,
      "encour": 7672,
      "justice": 7673,
      "ancient": 7674,
      "foc": 7675,
      "1945": 7676,
      "achieve": 7677,
      "cers": 7678,
      "1941": 7679,
      "electron": 7680,
      "husband": 7681,
      "offer": 7682,
      "canal": 7683,
      "reaching": 7684,
      "explained": 7685,
      "older": 7686,
      "fiction": 7687,
      "asia": 7688,
      "italy": 7689,
      "appearances": 7690,
      "mine": 7691,
      "weapons": 7692,
      "cine": 7693,
      "anne": 7694,
      "supply": 7695,
      "ato": 7696,
      "channel": 7697,
      "iated": 7698,
      "growth": 7699,
      "looking": 7700,
      "steam": 7701,
      "acu": 7702,
      "ridge": 7703,
      "americans": 7704,
      "pap": 7705,
      "instrument": 7706,
      "ulations": 7707,
      "successfully": 7708,
      "widely": 7709,
      "poly": 7710,
      "medal": 7711,
      "pieces": 7712,
      "proved": 7713,
      "gained": 7714,
      "officially": 7715,
      "watch": 7716,
      "dete": 7717,
      "baseball": 7718,
      "rhy": 7719,
      "micro": 7720,
      "assa": 7721,
      "ets": 7722,
      "workers": 7723,
      "duke": 7724,
      "jersey": 7725,
      "negot": 7726,
      "sid": 7727,
      "99": 7728,
      "offensive": 7729,
      "otto": 7730,
      "sher": 7731,
      "swit": 7732,
      "hotel": 7733,
      "dur": 7734,
      "choice": 7735,
      "mast": 7736,
      "rear": 7737,
      "steel": 7738,
      "beyond": 7739,
      "gary": 7740,
      "brothers": 7741,
      "rho": 7742,
      "aid": 7743,
      "ireland": 7744,
      "mounted": 7745,
      "horses": 7746,
      "question": 7747,
      "ological": 7748,
      "fix": 7749,
      "reign": 7750,
      "eas": 7751,
      "imag": 7752,
      "element": 7753,
      "endo": 7754,
      "organized": 7755,
      "doing": 7756,
      "library": 7757,
      "rat": 7758,
      "vania": 7759,
      "headquarters": 7760,
      "izes": 7761,
      "ahead": 7762,
      "says": 7763,
      "normal": 7764,
      "aer": 7765,
      "legisl": 7766,
      "ider": 7767,
      "affected": 7768,
      "capac": 7769,
      "expans": 7770,
      "branch": 7771,
      "partner": 7772,
      "1989": 7773,
      "rainfall": 7774,
      "speech": 7775,
      "cool": 7776,
      "causing": 7777,
      "moon": 7778,
      "bodies": 7779,
      "bowl": 7780,
      "1943": 7781,
      "victoria": 7782,
      "visited": 7783,
      "fred": 7784,
      "theless": 7785,
      "represented": 7786,
      "gor": 7787,
      "laid": 7788,
      "techni": 7789,
      "expressed": 7790,
      "assemb": 7791,
      "leaders": 7792,
      "jul": 7793,
      "require": 7794,
      "sle": 7795,
      "article": 7796,
      "vote": 7797,
      "catholic": 7798,
      "matter": 7799,
      "split": 7800,
      "famous": 7801,
      "equipment": 7802,
      "escape": 7803,
      "roll": 7804,
      "apparent": 7805,
      "yu": 7806,
      "broken": 7807,
      "store": 7808,
      "fired": 7809,
      "strike": 7810,
      "reports": 7811,
      "zy": 7812,
      "snow": 7813,
      "tay": 7814,
      "computer": 7815,
      "crimin": 7816,
      "ami": 7817,
      "prominent": 7818,
      "600": 7819,
      "ung": 7820,
      "nations": 7821,
      "drama": 7822,
      "advanced": 7823,
      "avoid": 7824,
      "bush": 7825,
      "advant": 7826,
      "rome": 7827,
      "narr": 7828,
      "analys": 7829,
      "nav": 7830,
      "skill": 7831,
      "worldwide": 7832,
      "claims": 7833,
      "bart": 7834,
      "nas": 7835,
      "tells": 7836,
      "defend": 7837,
      "technology": 7838,
      "manufact": 7839,
      "category": 7840,
      "ji": 7841,
      "sport": 7842,
      "lyn": 7843,
      "experiment": 7844,
      "77": 7845,
      "reserve": 7846,
      "treatment": 7847,
      "occasion": 7848,
      "usual": 7849,
      "senate": 7850,
      "leaves": 7851,
      "motor": 7852,
      "heavily": 7853,
      "uled": 7854,
      "3rd": 7855,
      "spread": 7856,
      "trees": 7857,
      "graphic": 7858,
      "activities": 7859,
      "dutch": 7860,
      "disco": 7861,
      "condition": 7862,
      "extra": 7863,
      "powers": 7864,
      "gment": 7865,
      "meanwhile": 7866,
      "why": 7867,
      "figures": 7868,
      "unknown": 7869,
      "ories": 7870,
      "trip": 7871,
      "actress": 7872,
      "editor": 7873,
      "historic": 7874,
      "shore": 7875,
      "ifying": 7876,
      "hands": 7877,
      "walls": 7878,
      "plement": 7879,
      "toward": 7880,
      "believe": 7881,
      "rob": 7882,
      "combin": 7883,
      "expedition": 7884,
      "lind": 7885,
      "lb": 7886,
      "injury": 7887,
      "aired": 7888,
      "1940": 7889,
      "stations": 7890,
      "landing": 7891,
      "passes": 7892,
      "brook": 7893,
      "1980s": 7894,
      "sie": 7895,
      "arrange": 7896,
      "lives": 7897,
      "symbol": 7898,
      "alo": 7899,
      "data": 7900,
      "currently": 7901,
      "zone": 7902,
      "golden": 7903,
      "casual": 7904,
      "dream": 7905,
      "unlike": 7906,
      "illustr": 7907,
      "homer": 7908,
      "ckey": 7909,
      "crossing": 7910,
      "uel": 7911,
      "debuted": 7912,
      "necessary": 7913,
      "awa": 7914,
      "challeng": 7915,
      "consisted": 7916,
      "von": 7917,
      "typically": 7918,
      "attach": 7919,
      "phone": 7920,
      "feed": 7921,
      "dry": 7922,
      "web": 7923,
      "none": 7924,
      "rise": 7925,
      "uments": 7926,
      "bach": 7927,
      "ledge": 7928,
      "ror": 7929,
      "heads": 7930,
      "anta": 7931,
      "rael": 7932,
      "severe": 7933,
      "66": 7934,
      "wave": 7935,
      "rect": 7936,
      "heard": 7937,
      "couple": 7938,
      "glass": 7939,
      "argued": 7940,
      "eliza": 7941,
      "frequently": 7942,
      "cricket": 7943,
      "aling": 7944,
      "opposed": 7945,
      "composition": 7946,
      "industrial": 7947,
      "opposition": 7948,
      "reference": 7949,
      "formula": 7950,
      "value": 7951,
      "polish": 7952,
      "twice": 7953,
      "hear": 7954,
      "finish": 7955,
      "1970s": 7956,
      "animal": 7957,
      "wart": 7958,
      "ingu": 7959,
      "description": 7960,
      "fine": 7961,
      "aspect": 7962,
      "elimin": 7963,
      "ini": 7964,
      "sphere": 7965,
      "ounds": 7966,
      "protection": 7967,
      "maintained": 7968,
      "advert": 7969,
      "mist": 7970,
      "supre": 7971,
      "notable": 7972,
      "cked": 7973,
      "trying": 7974,
      "gia": 7975,
      "phas": 7976,
      "1960s": 7977,
      "vice": 7978,
      "chor": 7979,
      "problem": 7980,
      "operated": 7981,
      "iverse": 7982,
      "fuel": 7983,
      "criticized": 7984,
      "moment": 7985,
      "note": 7986,
      "growing": 7987,
      "adapt": 7988,
      "iet": 7989,
      "compar": 7990,
      "yo": 7991,
      "holly": 7992,
      "carolina": 7993,
      "joint": 7994,
      "fru": 7995,
      "transl": 7996,
      "discover": 7997,
      "strip": 7998,
      "chosen": 7999,
      "bru": 8000,
      "pursu": 8001,
      "ibe": 8002,
      "label": 8003,
      "institute": 8004,
      "apped": 8005,
      "1987": 8006,
      "webs": 8007,
      "mount": 8008,
      "kick": 8009,
      "twelve": 8010,
      "arc": 8011,
      "scottish": 8012,
      "plants": 8013,
      "ita": 8014,
      "classic": 8015,
      "1988": 8016,
      "entr": 8017,
      "rolling": 8018,
      "producers": 8019,
      "wounded": 8020,
      "comic": 8021,
      "gers": 8022,
      "integr": 8023,
      "zen": 8024,
      "max": 8025,
      "bra": 8026,
      "seventh": 8027,
      "philoso": 8028,
      "assembly": 8029,
      "bil": 8030,
      "dated": 8031,
      "cart": 8032,
      "grew": 8033,
      "96": 8034,
      "youth": 8035,
      "imen": 8036,
      "stood": 8037,
      "consecut": 8038,
      "newspaper": 8039,
      "fare": 8040,
      "multi": 8041,
      "billion": 8042,
      "sites": 8043,
      "caval": 8044,
      "surrounding": 8045,
      "ome": 8046,
      "degree": 8047,
      "independence": 8048,
      "lev": 8049,
      "nuclear": 8050,
      "phia": 8051,
      "atures": 8052,
      "nan": 8053,
      "istan": 8054,
      "rival": 8055,
      "rand": 8056,
      "hay": 8057,
      "republican": 8058,
      "deck": 8059,
      "fields": 8060,
      "voted": 8061,
      "risk": 8062,
      "oppos": 8063,
      "ros": 8064,
      "vot": 8065,
      "serving": 8066,
      "boats": 8067,
      "jay": 8068,
      "banks": 8069,
      "mem": 8070,
      "bid": 8071,
      "teenth": 8072,
      "simply": 8073,
      "roof": 8074,
      "perfect": 8075,
      "fresh": 8076,
      "joe": 8077,
      "elev": 8078,
      "losing": 8079,
      "weekly": 8080,
      "expansion": 8081,
      "follows": 8082,
      "killing": 8083,
      "ares": 8084,
      "contained": 8085,
      "circ": 8086,
      "agric": 8087,
      "ota": 8088,
      "regarded": 8089,
      "christmas": 8090,
      "hr": 8091,
      "kee": 8092,
      "honour": 8093,
      "shop": 8094,
      "herself": 8095,
      "oppon": 8096,
      "newly": 8097,
      "spin": 8098,
      "emphas": 8099,
      "individuals": 8100,
      "mn": 8101,
      "cock": 8102,
      "elling": 8103,
      "hydro": 8104,
      "sens": 8105,
      "pennsyl": 8106,
      "pier": 8107,
      "reven": 8108,
      "raid": 8109,
      "continent": 8110,
      "happen": 8111,
      "bac": 8112,
      "homes": 8113,
      "eyes": 8114,
      "consecutive": 8115,
      "franch": 8116,
      "ec": 8117,
      "tric": 8118,
      "throw": 8119,
      "holds": 8120,
      "measure": 8121,
      "rod": 8122,
      "wilson": 8123,
      "hart": 8124,
      "yl": 8125,
      "conce": 8126,
      "jes": 8127,
      "mentioned": 8128,
      "taylor": 8129,
      "creating": 8130,
      "volume": 8131,
      "bron": 8132,
      "56": 8133,
      "sections": 8134,
      "chose": 8135,
      "website": 8136,
      "cannot": 8137,
      "collap": 8138,
      "perman": 8139,
      "ulty": 8140,
      "ils": 8141,
      "1986": 8142,
      "supporting": 8143,
      "sets": 8144,
      "hope": 8145,
      "visual": 8146,
      "lady": 8147,
      "kid": 8148,
      "capacity": 8149,
      "encounter": 8150,
      "goes": 8151,
      "boys": 8152,
      "anged": 8153,
      "alexander": 8154,
      "analysis": 8155,
      "themes": 8156,
      "participated": 8157,
      "paralle": 8158,
      "democratic": 8159,
      "adopted": 8160,
      "aly": 8161,
      "seas": 8162,
      "meters": 8163,
      "leadership": 8164,
      "opera": 8165,
      "colonel": 8166,
      "filmed": 8167,
      "calls": 8168,
      "warr": 8169,
      "robin": 8170,
      "abandoned": 8171,
      "genus": 8172,
      "disease": 8173,
      "kn": 8174,
      "basis": 8175,
      "negative": 8176,
      "gain": 8177,
      "girls": 8178,
      "possibly": 8179,
      "equal": 8180,
      "pine": 8181,
      "contact": 8182,
      "ancing": 8183,
      "pennsylvania": 8184,
      "aded": 8185,
      "disc": 8186,
      "purpose": 8187,
      "seat": 8188,
      "freedom": 8189,
      "tag": 8190,
      "mate": 8191,
      "rif": 8192,
      "58": 8193,
      "anda": 8194,
      "brian": 8195,
      "failure": 8196,
      "mike": 8197,
      "gameplay": 8198,
      "irish": 8199,
      "judge": 8200,
      "straight": 8201,
      "garden": 8202,
      "iled": 8203,
      "adult": 8204,
      "session": 8205,
      "wick": 8206,
      "treaty": 8207,
      "98": 8208,
      "egg": 8209,
      "palace": 8210,
      "rooms": 8211,
      "constitution": 8212,
      "sche": 8213,
      "iations": 8214,
      "pel": 8215,
      "distingu": 8216,
      "lying": 8217,
      "logist": 8218,
      "foundation": 8219,
      "principal": 8220,
      "iana": 8221,
      "merch": 8222,
      "interchange": 8223,
      "fro": 8224,
      "basket": 8225,
      "harry": 8226,
      "spain": 8227,
      "kins": 8228,
      "southwest": 8229,
      "ideas": 8230,
      "sem": 8231,
      "wars": 8232,
      "kit": 8233,
      "corn": 8234,
      "retired": 8235,
      "glas": 8236,
      "extensive": 8237,
      "surrender": 8238,
      "struction": 8239,
      "generation": 8240,
      "deliver": 8241,
      "occupied": 8242,
      "dial": 8243,
      "soul": 8244,
      "improved": 8245,
      "dip": 8246,
      "hockey": 8247,
      "1990s": 8248,
      "agent": 8249,
      "speak": 8250,
      "page": 8251,
      "witness": 8252,
      "younger": 8253,
      "roles": 8254,
      "suppor": 8255,
      "chamber": 8256,
      "coll": 8257,
      "borough": 8258,
      "asc": 8259,
      "evacu": 8260,
      "budget": 8261,
      "vised": 8262,
      "ctic": 8263,
      "1939": 8264,
      "titles": 8265,
      "count": 8266,
      "trou": 8267,
      "dollar": 8268,
      "repeated": 8269,
      "achieved": 8270,
      "md": 8271,
      "israel": 8272,
      "academ": 8273,
      "economy": 8274,
      "cd": 8275,
      "kh": 8276,
      "print": 8277,
      "online": 8278,
      "atmo": 8279,
      "jeff": 8280,
      "piano": 8281,
      "families": 8282,
      "elizabeth": 8283,
      "effective": 8284,
      "ques": 8285,
      "province": 8286,
      "techn": 8287,
      "briefly": 8288,
      "simple": 8289,
      "braz": 8290,
      "regional": 8291,
      "tered": 8292,
      "clou": 8293,
      "eleven": 8294,
      "territor": 8295,
      "granted": 8296,
      "turns": 8297,
      "gather": 8298,
      "shor": 8299,
      "experienced": 8300,
      "determined": 8301,
      "firm": 8302,
      "ura": 8303,
      "junction": 8304,
      "vehicles": 8305,
      "nis": 8306,
      "burgh": 8307,
      "anth": 8308,
      "defensive": 8309,
      "advantage": 8310,
      "ola": 8311,
      "holding": 8312,
      "fame": 8313,
      "1985": 8314,
      "adow": 8315,
      "slav": 8316,
      "trust": 8317,
      "caught": 8318,
      "rejected": 8319,
      "tall": 8320,
      "flat": 8321,
      "tact": 8322,
      "1968": 8323,
      "dram": 8324,
      "fighter": 8325,
      "recently": 8326,
      "baby": 8327,
      "controlled": 8328,
      "attribut": 8329,
      "lum": 8330,
      "grav": 8331,
      "kilometres": 8332,
      "secondary": 8333,
      "expanded": 8334,
      "performing": 8335,
      "scar": 8336,
      "gives": 8337,
      "flooding": 8338,
      "din": 8339,
      "sufficient": 8340,
      "receive": 8341,
      "lers": 8342,
      "letters": 8343,
      "authorities": 8344,
      "motional": 8345,
      "didn": 8346,
      "1970": 8347,
      "nie": 8348,
      "ots": 8349,
      "iring": 8350,
      "52": 8351,
      "ohio": 8352,
      "cavalry": 8353,
      "soft": 8354,
      "assistant": 8355,
      "literature": 8356,
      "cook": 8357,
      "fought": 8358,
      "anton": 8359,
      "commonly": 8360,
      "credited": 8361,
      "describes": 8362,
      "acquired": 8363,
      "guy": 8364,
      "iments": 8365,
      "ador": 8366,
      "1984": 8367,
      "safety": 8368,
      "picture": 8369,
      "tend": 8370,
      "agan": 8371,
      "singing": 8372,
      "regarding": 8373,
      "protected": 8374,
      "math": 8375,
      "wan": 8376,
      "narrow": 8377,
      "accompan": 8378,
      "prefer": 8379,
      "scheduled": 8380,
      "utions": 8381,
      "freeway": 8382,
      "philadel": 8383,
      "criticism": 8384,
      "planning": 8385,
      "iar": 8386,
      "suggests": 8387,
      "ires": 8388,
      "towns": 8389,
      "clark": 8390,
      "800": 8391,
      "shooting": 8392,
      "centuries": 8393,
      "supreme": 8394,
      "alty": 8395,
      "jen": 8396,
      "iday": 8397,
      "crime": 8398,
      "code": 8399,
      "locations": 8400,
      "cambridge": 8401,
      "ifications": 8402,
      "falls": 8403,
      "georgia": 8404,
      "ults": 8405,
      "convention": 8406,
      "recon": 8407,
      "cha": 8408,
      "lif": 8409,
      "88": 8410,
      "ria": 8411,
      "reading": 8412,
      "height": 8413,
      "connected": 8414,
      "iter": 8415,
      "contain": 8416,
      "reput": 8417,
      "distribution": 8418,
      "bing": 8419,
      "withdraw": 8420,
      "elder": 8421,
      "alternative": 8422,
      "iful": 8423,
      "victim": 8424,
      "haps": 8425,
      "reaction": 8426,
      "protect": 8427,
      "gulf": 8428,
      "scientific": 8429,
      "accompanied": 8430,
      "philadelphia": 8431,
      "chance": 8432,
      "campus": 8433,
      "ligh": 8434,
      "decre": 8435,
      "cars": 8436,
      "las": 8437,
      "bands": 8438,
      "unique": 8439,
      "apol": 8440,
      "perhaps": 8441,
      "attle": 8442,
      "tel": 8443,
      "save": 8444,
      "ios": 8445,
      "existing": 8446,
      "wrestling": 8447,
      "poe": 8448,
      "escor": 8449,
      "1967": 8450,
      "finds": 8451,
      "gency": 8452,
      "97": 8453,
      "russia": 8454,
      "inth": 8455,
      "120": 8456,
      "estate": 8457,
      "nint": 8458,
      "whit": 8459,
      "price": 8460,
      "rules": 8461,
      "1980": 8462,
      "facilities": 8463,
      "garr": 8464,
      "wic": 8465,
      "moral": 8466,
      "quite": 8467,
      "arrival": 8468,
      "recru": 8469,
      "coln": 8470,
      "laws": 8471,
      "exchange": 8472,
      "korean": 8473,
      "insu": 8474,
      "conve": 8475,
      "trains": 8476,
      "containing": 8477,
      "publication": 8478,
      "selection": 8479,
      "forming": 8480,
      "domestic": 8481,
      "approved": 8482,
      "belong": 8483,
      "ottoman": 8484,
      "jr": 8485,
      "chen": 8486,
      "touchdown": 8487,
      "evening": 8488,
      "ceremony": 8489,
      "liverpool": 8490,
      "repl": 8491,
      "regist": 8492,
      "headed": 8493,
      "nintendo": 8494,
      "ivity": 8495,
      "carry": 8496,
      "rout": 8497,
      "scholar": 8498,
      "herit": 8499,
      "ias": 8500,
      "fash": 8501,
      "det": 8502,
      "product": 8503,
      "cruiser": 8504,
      "bou": 8505,
      "hits": 8506,
      "entry": 8507,
      "entirely": 8508,
      "miller": 8509,
      "structures": 8510,
      "51": 8511,
      "poll": 8512,
      "columbia": 8513,
      "target": 8514,
      "andrew": 8515,
      "bath": 8516,
      "proto": 8517,
      "launch": 8518,
      "rh": 8519,
      "gene": 8520,
      "dedicated": 8521,
      "intensity": 8522,
      "borne": 8523,
      "resistance": 8524,
      "grey": 8525,
      "purchased": 8526,
      "ivan": 8527,
      "publish": 8528,
      "jean": 8529,
      "contributed": 8530,
      "singap": 8531,
      "gay": 8532,
      "allows": 8533,
      "legacy": 8534,
      "jewish": 8535,
      "57": 8536,
      "inde": 8537,
      "provides": 8538,
      "wheel": 8539,
      "oak": 8540,
      "casualties": 8541,
      "lau": 8542,
      "filled": 8543,
      "1983": 8544,
      "brazil": 8545,
      "cens": 8546,
      "satis": 8547,
      "gone": 8548,
      "employed": 8549,
      "windows": 8550,
      "prising": 8551,
      "battery": 8552,
      "prepared": 8553,
      "missing": 8554,
      "engaged": 8555,
      "faith": 8556,
      "happy": 8557,
      "carey": 8558,
      "aces": 8559,
      "wright": 8560,
      "francisco": 8561,
      "ella": 8562,
      "regions": 8563,
      "1969": 8564,
      "viewed": 8565,
      "eighth": 8566,
      "singapore": 8567,
      "aka": 8568,
      "correspond": 8569,
      "basketball": 8570,
      "1964": 8571,
      "nik": 8572,
      "bourne": 8573,
      "lincoln": 8574,
      "preced": 8575,
      "azz": 8576,
      "istol": 8577,
      "placing": 8578,
      "54": 8579,
      "mam": 8580,
      "promotion": 8581,
      "resour": 8582,
      "pitch": 8583,
      "raf": 8584,
      "cles": 8585,
      "daniel": 8586,
      "satur": 8587,
      "heim": 8588,
      "hms": 8589,
      "coastal": 8590,
      "rig": 8591,
      "dale": 8592,
      "introduction": 8593,
      "lav": 8594,
      "iant": 8595,
      "1914": 8596,
      "defined": 8597,
      "evil": 8598,
      "rence": 8599,
      "focused": 8600,
      "walter": 8601,
      "liest": 8602,
      "views": 8603,
      "1918": 8604,
      "charged": 8605,
      "receiving": 8606,
      "isol": 8607,
      "corner": 8608,
      "closely": 8609,
      "mol": 8610,
      "playstation": 8611,
      "disney": 8612,
      "ero": 8613,
      "belief": 8614,
      "opportunity": 8615,
      "decor": 8616,
      "allies": 8617,
      "anderson": 8618,
      "iles": 8619,
      "cris": 8620,
      "link": 8621,
      "display": 8622,
      "lewis": 8623,
      "1971": 8624,
      "1982": 8625,
      "abs": 8626,
      "iny": 8627,
      "steve": 8628,
      "alan": 8629,
      "roughly": 8630,
      "consists": 8631,
      "1966": 8632,
      "1972": 8633,
      "1979": 8634,
      "consul": 8635,
      "byz": 8636,
      "losses": 8637,
      "naz": 8638,
      "sud": 8639,
      "getting": 8640,
      "68": 8641,
      "hundred": 8642,
      "formal": 8643,
      "premier": 8644,
      "rub": 8645,
      "railroad": 8646,
      "sis": 8647,
      "armour": 8648,
      "intelligence": 8649,
      "remo": 8650,
      "18th": 8651,
      "neighbor": 8652,
      "anything": 8653,
      "inspir": 8654,
      "desc": 8655,
      "iger": 8656,
      "adding": 8657,
      "resc": 8658,
      "aste": 8659,
      "mobile": 8660,
      "kat": 8661,
      "olympic": 8662,
      "marks": 8663,
      "ology": 8664,
      "lun": 8665,
      "relations": 8666,
      "garian": 8667,
      "religion": 8668,
      "hired": 8669,
      "byzant": 8670,
      "task": 8671,
      "sab": 8672,
      "stu": 8673,
      "1965": 8674,
      "bottom": 8675,
      "bun": 8676,
      "ounder": 8677,
      "walk": 8678,
      "patrol": 8679,
      "appre": 8680,
      "recognized": 8681,
      "illa": 8682,
      "retire": 8683,
      "politics": 8684,
      "franchise": 8685,
      "nast": 8686,
      "chemical": 8687,
      "providing": 8688,
      "mud": 8689,
      "phase": 8690,
      "developing": 8691,
      "relief": 8692,
      "94": 8693,
      "semi": 8694,
      "1975": 8695,
      "appeal": 8696,
      "kim": 8697,
      "nhl": 8698,
      "guide": 8699,
      "shared": 8700,
      "investigation": 8701,
      "hang": 8702,
      "cler": 8703,
      "fron": 8704,
      "rapidly": 8705,
      "enge": 8706,
      "credits": 8707,
      "shape": 8708,
      "earl": 8709,
      "myster": 8710,
      "solid": 8711,
      "gang": 8712,
      "rons": 8713,
      "hollywood": 8714,
      "plate": 8715,
      "temperature": 8716,
      "professor": 8717,
      "germans": 8718,
      "pir": 8719,
      "ogue": 8720,
      "everything": 8721,
      "achu": 8722,
      "involve": 8723,
      "junior": 8724,
      "settlement": 8725,
      "bright": 8726,
      "1974": 8727,
      "davis": 8728,
      "kentuck": 8729,
      "journey": 8730,
      "1973": 8731,
      "ads": 8732,
      "cited": 8733,
      "specif": 8734,
      "archae": 8735,
      "isb": 8736,
      "ene": 8737,
      "67": 8738,
      "operating": 8739,
      "popularity": 8740,
      "knew": 8741,
      "shaped": 8742,
      "ctors": 8743,
      "global": 8744,
      "breeding": 8745,
      "portray": 8746,
      "opinion": 8747,
      "1976": 8748,
      "rever": 8749,
      "mode": 8750,
      "53": 8751,
      "roc": 8752,
      "mayor": 8753,
      "significantly": 8754,
      "projects": 8755,
      "intersection": 8756,
      "knowledge": 8757,
      "adam": 8758,
      "mountains": 8759,
      "clean": 8760,
      "literary": 8761,
      "ables": 8762,
      "beyonce": 8763,
      "injured": 8764,
      "evolution": 8765,
      "fran": 8766,
      "heat": 8767,
      "250": 8768,
      "cot": 8769,
      "fear": 8770,
      "stages": 8771,
      "escap": 8772,
      "confeder": 8773,
      "assault": 8774,
      "raw": 8775,
      "reasons": 8776,
      "challenge": 8777,
      "87": 8778,
      "kur": 8779,
      "skin": 8780,
      "bear": 8781,
      "volcan": 8782,
      "ilton": 8783,
      "playoff": 8784,
      "substant": 8785,
      "sounds": 8786,
      "gord": 8787,
      "missions": 8788,
      "treated": 8789,
      "lies": 8790,
      "poem": 8791,
      "platform": 8792,
      "photograph": 8793,
      "orient": 8794,
      "distinct": 8795,
      "eag": 8796,
      "grounds": 8797,
      "employ": 8798,
      "arsen": 8799,
      "divisions": 8800,
      "peninsu": 8801,
      "acres": 8802,
      "muslim": 8803,
      "grapher": 8804,
      "itz": 8805,
      "accur": 8806,
      "exerc": 8807,
      "arranged": 8808,
      "breaking": 8809,
      "humans": 8810,
      "rupt": 8811,
      "genet": 8812,
      "storyline": 8813,
      "ule": 8814,
      "stable": 8815,
      "violence": 8816,
      "unte": 8817,
      "existence": 8818,
      "stret": 8819,
      "labour": 8820,
      "strate": 8821,
      "hills": 8822,
      "internal": 8823,
      "renamed": 8824,
      "cells": 8825,
      "jon": 8826,
      "astron": 8827,
      "watched": 8828,
      "statement": 8829,
      "thirty": 8830,
      "chairman": 8831,
      "syd": 8832,
      "reputation": 8833,
      "collected": 8834,
      "invent": 8835,
      "exact": 8836,
      "160": 8837,
      "proceed": 8838,
      "nevertheless": 8839,
      "expect": 8840,
      "volunte": 8841,
      "donald": 8842,
      "4th": 8843,
      "itude": 8844,
      "nur": 8845,
      "limit": 8846,
      "finding": 8847,
      "poet": 8848,
      "wings": 8849,
      "swim": 8850,
      "outer": 8851,
      "genre": 8852,
      "combination": 8853,
      "females": 8854,
      "models": 8855,
      "blues": 8856,
      "extrem": 8857,
      "ients": 8858,
      "symp": 8859,
      "increasingly": 8860,
      "dates": 8861,
      "kentucky": 8862,
      "59": 8863,
      "capable": 8864,
      "neither": 8865,
      "1946": 8866,
      "converted": 8867,
      "abilities": 8868,
      "typical": 8869,
      "declined": 8870,
      "1981": 8871,
      "neut": 8872,
      "buried": 8873,
      "diam": 8874,
      "foss": 8875,
      "typho": 8876,
      "details": 8877,
      "gent": 8878,
      "camera": 8879,
      "ales": 8880,
      "setts": 8881,
      "virt": 8882,
      "eco": 8883,
      "sustained": 8884,
      "depth": 8885,
      "itled": 8886,
      "learned": 8887,
      "enjoyed": 8888,
      "tests": 8889,
      "ala": 8890,
      "versy": 8891,
      "producing": 8892,
      "1950s": 8893,
      "nut": 8894,
      "controversy": 8895,
      "matt": 8896,
      "applied": 8897,
      "1917": 8898,
      "norway": 8899,
      "massachu": 8900,
      "gray": 8901,
      "dd": 8902,
      "inum": 8903,
      "cking": 8904,
      "olympics": 8905,
      "mole": 8906,
      "brain": 8907,
      "mers": 8908,
      "championships": 8909,
      "triple": 8910,
      "massachusetts": 8911,
      "graded": 8912,
      "torn": 8913,
      "warm": 8914,
      "bis": 8915,
      "bling": 8916,
      "advoc": 8917,
      "approached": 8918,
      "ride": 8919,
      "pear": 8920,
      "entrance": 8921,
      "iro": 8922,
      "usa": 8923,
      "maria": 8924,
      "hell": 8925,
      "technical": 8926,
      "carrying": 8927,
      "decade": 8928,
      "easily": 8929,
      "frag": 8930,
      "designs": 8931,
      "onic": 8932,
      "credit": 8933,
      "responded": 8934,
      "dub": 8935,
      "extension": 8936,
      "tren": 8937,
      "download": 8938,
      "discovery": 8939,
      "1948": 8940,
      "beautiful": 8941,
      "sects": 8942,
      "duty": 8943,
      "udes": 8944,
      "secure": 8945,
      "asser": 8946,
      "1960": 8947,
      "crowd": 8948,
      "programs": 8949,
      "gradually": 8950,
      "winner": 8951,
      "succeeded": 8952,
      "nate": 8953,
      "specifically": 8954,
      "classical": 8955,
      "munic": 8956,
      "prize": 8957,
      "ole": 8958,
      "sters": 8959,
      "showing": 8960,
      "simpsons": 8961,
      "vul": 8962,
      "sax": 8963,
      "cia": 8964,
      "nich": 8965,
      "assess": 8966,
      "finals": 8967,
      "stro": 8968,
      "items": 8969,
      "rab": 8970,
      "exclus": 8971,
      "prisoners": 8972,
      "1978": 8973,
      "clar": 8974,
      "gres": 8975,
      "vietnam": 8976,
      "ignment": 8977,
      "similarly": 8978,
      "cies": 8979,
      "talk": 8980,
      "legend": 8981,
      "700": 8982,
      "weakened": 8983,
      "indicated": 8984,
      "fruit": 8985,
      "seems": 8986,
      "products": 8987,
      "constitut": 8988,
      "additionally": 8989,
      "jur": 8990,
      "terior": 8991,
      "89": 8992,
      "earliest": 8993,
      "parties": 8994,
      "carbon": 8995,
      "kon": 8996,
      "ols": 8997,
      "lasted": 8998,
      "municipal": 8999,
      "warning": 9000,
      "mtv": 9001,
      "rural": 9002,
      "presidential": 9003,
      "ruled": 9004,
      "routes": 9005,
      "cruisers": 9006,
      "79": 9007,
      "threatened": 9008,
      "1915": 9009,
      "animated": 9010,
      "reform": 9011,
      "employe": 9012,
      "bian": 9013,
      "candidate": 9014,
      "86": 9015,
      "engineer": 9016,
      "pup": 9017,
      "gol": 9018,
      "bt": 9019,
      "retained": 9020,
      "cooper": 9021,
      "aki": 9022,
      "gross": 9023,
      "dang": 9024,
      "circu": 9025,
      "gle": 9026,
      "omy": 9027,
      "basic": 9028,
      "sydney": 9029,
      "writes": 9030,
      "hugh": 9031,
      "fashion": 9032,
      "compo": 9033,
      "1977": 9034,
      "acid": 9035,
      "superi": 9036,
      "poland": 9037,
      "giant": 9038,
      "moore": 9039,
      "icks": 9040,
      "presents": 9041,
      "styles": 9042,
      "tes": 9043,
      "saurus": 9044,
      "peninsula": 9045,
      "valu": 9046,
      "maryland": 9047,
      "issance": 9048,
      "supplies": 9049,
      "explor": 9050,
      "sort": 9051,
      "ette": 9052,
      "adapted": 9053,
      "ivered": 9054,
      "agency": 9055,
      "diplo": 9056,
      "remix": 9057,
      "magic": 9058,
      "interior": 9059,
      "storms": 9060,
      "climate": 9061,
      "cycle": 9062,
      "champions": 9063,
      "agen": 9064,
      "speaking": 9065,
      "pleas": 9066,
      "afterwards": 9067,
      "tony": 9068,
      "seeing": 9069,
      "delivered": 9070,
      "infl": 9071,
      "rebell": 9072,
      "andy": 9073,
      "engines": 9074,
      "shadow": 9075,
      "landfall": 9076,
      "administr": 9077,
      "consequ": 9078,
      "1963": 9079,
      "dynast": 9080,
      "interested": 9081,
      "stopped": 9082,
      "alien": 9083,
      "downtown": 9084,
      "copy": 9085,
      "rhodes": 9086,
      "trig": 9087,
      "surviv": 9088,
      "message": 9089,
      "architecture": 9090,
      "hanna": 9091,
      "drug": 9092,
      "equival": 9093,
      "engineering": 9094,
      "convin": 9095,
      "entitled": 9096,
      "fing": 9097,
      "wre": 9098,
      "1916": 9099,
      "permanent": 9100,
      "cancell": 9101,
      "affairs": 9102,
      "bure": 9103,
      "hamp": 9104,
      "iser": 9105,
      "aria": 9106,
      "supporters": 9107,
      "gordon": 9108,
      "asian": 9109,
      "settled": 9110,
      "citizens": 9111,
      "extremely": 9112,
      "pig": 9113,
      "wich": 9114,
      "dean": 9115,
      "isms": 9116,
      "icts": 9117,
      "sip": 9118,
      "tz": 9119,
      "affect": 9120,
      "izations": 9121,
      "wides": 9122,
      "medit": 9123,
      "images": 9124,
      "tip": 9125,
      "causes": 9126,
      "diamond": 9127,
      "wonder": 9128,
      "deaths": 9129,
      "kong": 9130,
      "importance": 9131,
      "proposal": 9132,
      "seek": 9133,
      "enem": 9134,
      "restaur": 9135,
      "deleg": 9136,
      "returns": 9137,
      "medic": 9138,
      "mulder": 9139,
      "holy": 9140,
      "61": 9141,
      "72": 9142,
      "spar": 9143,
      "inet": 9144,
      "ieval": 9145,
      "implement": 9146,
      "dal": 9147,
      "1919": 9148,
      "knots": 9149,
      "classification": 9150,
      "streets": 9151,
      "ento": 9152,
      "bran": 9153,
      "correct": 9154,
      "ratings": 9155,
      "typhoon": 9156,
      "composer": 9157,
      "asks": 9158,
      "hull": 9159,
      "appropr": 9160,
      "mous": 9161,
      "classified": 9162,
      "albert": 9163,
      "93": 9164,
      "1962": 9165,
      "retain": 9166,
      "colonial": 9167,
      "modif": 9168,
      "competit": 9169,
      "acre": 9170,
      "entering": 9171,
      "bringing": 9172,
      "62": 9173,
      "iversary": 9174,
      "tanks": 9175,
      "survived": 9176,
      "antly": 9177,
      "oto": 9178,
      "adams": 9179,
      "jane": 9180,
      "obl": 9181,
      "omin": 9182,
      "compon": 9183,
      "shield": 9184,
      "aftermath": 9185,
      "strateg": 9186,
      "controvers": 9187,
      "describing": 9188,
      "bag": 9189,
      "offers": 9190,
      "eat": 9191,
      "references": 9192,
      "fict": 9193,
      "iber": 9194,
      "umes": 9195,
      "eral": 9196,
      "studied": 9197,
      "connection": 9198,
      "catch": 9199,
      "bought": 9200,
      "incorporated": 9201,
      "leaf": 9202,
      "concerns": 9203,
      "sale": 9204,
      "1938": 9205,
      "argent": 9206,
      "arrested": 9207,
      "someone": 9208,
      "remember": 9209,
      "environmental": 9210,
      "rivers": 9211,
      "simon": 9212,
      "lights": 9213,
      "chapel": 9214,
      "circum": 9215,
      "sessions": 9216,
      "ez": 9217,
      "shots": 9218,
      "ario": 9219,
      "biography": 9220,
      "grass": 9221,
      "decline": 9222,
      "portrayed": 9223,
      "installed": 9224,
      "universe": 9225,
      "ili": 9226,
      "onia": 9227,
      "entially": 9228,
      "concerned": 9229,
      "purchase": 9230,
      "alliance": 9231,
      "hunting": 9232,
      "universal": 9233,
      "ulate": 9234,
      "angle": 9235,
      "reduce": 9236,
      "retr": 9237,
      "recalled": 9238,
      "corporation": 9239,
      "audio": 9240,
      "feeling": 9241,
      "rian": 9242,
      "siege": 9243,
      "harmon": 9244,
      "nomination": 9245,
      "pure": 9246,
      "actual": 9247,
      "130": 9248,
      "starts": 9249,
      "ansas": 9250,
      "academic": 9251,
      "medieval": 9252,
      "liberal": 9253,
      "69": 9254,
      "spons": 9255,
      "mono": 9256,
      "crossed": 9257,
      "equipped": 9258,
      "objects": 9259,
      "invited": 9260,
      "recognition": 9261,
      "driving": 9262,
      "chapter": 9263,
      "historians": 9264,
      "establishment": 9265,
      "thousands": 9266,
      "identity": 9267,
      "funds": 9268,
      "passage": 9269,
      "thunder": 9270,
      "noting": 9271,
      "anniversary": 9272,
      "1956": 9273,
      "hypo": 9274,
      "debate": 9275,
      "1930s": 9276,
      "decades": 9277,
      "consisting": 9278,
      "veter": 9279,
      "recommended": 9280,
      "admitted": 9281,
      "princess": 9282,
      "appointment": 9283,
      "haz": 9284,
      "programme": 9285,
      "truth": 9286,
      "frame": 9287,
      "kal": 9288,
      "considerable": 9289,
      "opt": 9290,
      "arsenal": 9291,
      "ware": 9292,
      "kan": 9293,
      "pav": 9294,
      "aints": 9295,
      "hut": 9296,
      "charges": 9297,
      "psycho": 9298,
      "leton": 9299,
      "lion": 9300,
      "posted": 9301,
      "anean": 9302,
      "colony": 9303,
      "visible": 9304,
      "enemies": 9305,
      "1936": 9306,
      "bern": 9307,
      "hamilton": 9308,
      "mak": 9309,
      "navig": 9310,
      "manner": 9311,
      "sequel": 9312,
      "rhyth": 9313,
      "claiming": 9314,
      "pread": 9315,
      "continuing": 9316,
      "remainder": 9317,
      "duties": 9318,
      "conservative": 9319,
      "ille": 9320,
      "nee": 9321,
      "monument": 9322,
      "lets": 9323,
      "thesis": 9324,
      "utc": 9325,
      "isa": 9326,
      "wins": 9327,
      "circle": 9328,
      "widespread": 9329,
      "classes": 9330,
      "behavior": 9331,
      "communist": 9332,
      "flank": 9333,
      "vac": 9334,
      "17th": 9335,
      "promote": 9336,
      "willing": 9337,
      "kenned": 9338,
      "noon": 9339,
      "pictures": 9340,
      "1961": 9341,
      "electronic": 9342,
      "bee": 9343,
      "nether": 9344,
      "indones": 9345,
      "animation": 9346,
      "slowly": 9347,
      "interpret": 9348,
      "una": 9349,
      "nba": 9350,
      "departure": 9351,
      "aspects": 9352,
      "looked": 9353,
      "inton": 9354,
      "occasionally": 9355,
      "ugu": 9356,
      "romantic": 9357,
      "flash": 9358,
      "transition": 9359,
      "attached": 9360,
      "athen": 9361,
      "bang": 9362,
      "knight": 9363,
      "uan": 9364,
      "populations": 9365,
      "110": 9366,
      "twin": 9367,
      "shut": 9368,
      "crete": 9369,
      "inity": 9370,
      "belt": 9371,
      "reli": 9372,
      "tie": 9373,
      "buff": 9374,
      "wwe": 9375,
      "1953": 9376,
      "5th": 9377,
      "address": 9378,
      "81": 9379,
      "owners": 9380,
      "resources": 9381,
      "63": 9382,
      "sic": 9383,
      "parallel": 9384,
      "hitler": 9385,
      "continental": 9386,
      "icit": 9387,
      "ilation": 9388,
      "destruction": 9389,
      "norman": 9390,
      "orchestra": 9391,
      "rebel": 9392,
      "wearing": 9393,
      "kennedy": 9394,
      "treas": 9395,
      "emergency": 9396,
      "theater": 9397,
      "arn": 9398,
      "senator": 9399,
      "graphics": 9400,
      "freder": 9401,
      "factory": 9402,
      "sunday": 9403,
      "howard": 9404,
      "transportation": 9405,
      "assistance": 9406,
      "alco": 9407,
      "jordan": 9408,
      "shaw": 9409,
      "certified": 9410,
      "apping": 9411,
      "inal": 9412,
      "indiana": 9413,
      "superior": 9414,
      "parish": 9415,
      "clubs": 9416,
      "vessels": 9417,
      "liked": 9418,
      "occurs": 9419,
      "shark": 9420,
      "quant": 9421,
      "diag": 9422,
      "weigh": 9423,
      "norwe": 9424,
      "aked": 9425,
      "icate": 9426,
      "income": 9427,
      "7th": 9428,
      "covering": 9429,
      "isted": 9430,
      "regon": 9431,
      "memory": 9432,
      "vit": 9433,
      "aux": 9434,
      "demol": 9435,
      "scully": 9436,
      "wers": 9437,
      "tunnel": 9438,
      "mathem": 9439,
      "1947": 9440,
      "fighters": 9441,
      "adventure": 9442,
      "sculpt": 9443,
      "dio": 9444,
      "inn": 9445,
      "acknow": 9446,
      "amend": 9447,
      "properties": 9448,
      "chorus": 9449,
      "punk": 9450,
      "pope": 9451,
      "norm": 9452,
      "veland": 9453,
      "hann": 9454,
      "1937": 9455,
      "conduct": 9456,
      "passengers": 9457,
      "74": 9458,
      "priest": 9459,
      "ryan": 9460,
      "1958": 9461,
      "conservation": 9462,
      "intention": 9463,
      "equivalent": 9464,
      "pc": 9465,
      "bean": 9466,
      "involving": 9467,
      "shir": 9468,
      "prised": 9469,
      "hend": 9470,
      "oldest": 9471,
      "terminus": 9472,
      "92": 9473,
      "1910": 9474,
      "excell": 9475,
      "rober": 9476,
      "stands": 9477,
      "allen": 9478,
      "carl": 9479,
      "heritage": 9480,
      "jum": 9481,
      "1957": 9482,
      "prede": 9483,
      "oregon": 9484,
      "91": 9485,
      "dick": 9486,
      "possibility": 9487,
      "patrick": 9488,
      "ders": 9489,
      "enix": 9490,
      "amaz": 9491,
      "ictions": 9492,
      "aret": 9493,
      "obtained": 9494,
      "conv": 9495,
      "committed": 9496,
      "ione": 9497,
      "hone": 9498,
      "shu": 9499,
      "fried": 9500,
      "regularly": 9501,
      "cathe": 9502,
      "bombard": 9503,
      "finishing": 9504,
      "rescue": 9505,
      "accused": 9506,
      "dynasty": 9507,
      "instru": 9508,
      "sleep": 9509,
      "consc": 9510,
      "salt": 9511,
      "illino": 9512,
      "agonist": 9513,
      "roger": 9514,
      "derived": 9515,
      "gon": 9516,
      "worst": 9517,
      "ninth": 9518,
      "porter": 9519,
      "survey": 9520,
      "agues": 9521,
      "turk": 9522,
      "ivals": 9523,
      "reviewers": 9524,
      "favorite": 9525,
      "pink": 9526,
      "segment": 9527,
      "mediterr": 9528,
      "cleveland": 9529,
      "deput": 9530,
      "douglas": 9531,
      "conscious": 9532,
      "shear": 9533,
      "replacement": 9534,
      "apt": 9535,
      "pled": 9536,
      "crisis": 9537,
      "aug": 9538,
      "illinois": 9539,
      "infr": 9540,
      "bab": 9541,
      "infe": 9542,
      "hosted": 9543,
      "generated": 9544,
      "joining": 9545,
      "moves": 9546,
      "mates": 9547,
      "supposed": 9548,
      "6th": 9549,
      "vehicle": 9550,
      "throne": 9551,
      "aboard": 9552,
      "assumed": 9553,
      "factor": 9554,
      "stanley": 9555,
      "eric": 9556,
      "gap": 9557,
      "iva": 9558,
      "circulation": 9559,
      "marke": 9560,
      "denied": 9561,
      "1959": 9562,
      "prot": 9563,
      "dragon": 9564,
      "appearing": 9565,
      "aqu": 9566,
      "abor": 9567,
      "representatives": 9568,
      "unusual": 9569,
      "attor": 9570,
      "commanded": 9571,
      "cott": 9572,
      "auth": 9573,
      "reality": 9574,
      "premiere": 9575,
      "fictional": 9576,
      "tied": 9577,
      "urb": 9578,
      "solar": 9579,
      "massive": 9580,
      "completion": 9581,
      "mediterranean": 9582,
      "shif": 9583,
      "nett": 9584,
      "vary": 9585,
      "keeping": 9586,
      "kevin": 9587,
      "morgan": 9588,
      "strongly": 9589,
      "bruce": 9590,
      "beatles": 9591,
      "bridges": 9592,
      "lect": 9593,
      "pole": 9594,
      "begun": 9595,
      "outstanding": 9596,
      "homo": 9597,
      "materials": 9598,
      "responsibility": 9599,
      "circuit": 9600,
      "1954": 9601,
      "abol": 9602,
      "persu": 9603,
      "surviving": 9604,
      "rates": 9605,
      "thetic": 9606,
      "characteristics": 9607,
      "costs": 9608,
      "1955": 9609,
      "bristol": 9610,
      "deem": 9611,
      "mail": 9612,
      "exception": 9613,
      "mexican": 9614,
      "cathedr": 9615,
      "painted": 9616,
      "isbn": 9617,
      "monarch": 9618,
      "norwegian": 9619,
      "scout": 9620,
      "alleged": 9621,
      "analy": 9622,
      "thel": 9623,
      "praise": 9624,
      "wickets": 9625,
      "column": 9626,
      "fold": 9627,
      "driven": 9628,
      "pm": 9629,
      "methods": 9630,
      "aine": 9631,
      "sailed": 9632,
      "gression": 9633,
      "dynam": 9634,
      "cancer": 9635,
      "representative": 9636,
      "carrier": 9637,
      "16th": 9638,
      "82": 9639,
      "jar": 9640,
      "erup": 9641,
      "everyone": 9642,
      "passenger": 9643,
      "resem": 9644,
      "funding": 9645,
      "politic": 9646,
      "emerged": 9647,
      "plus": 9648,
      "uct": 9649,
      "legislat": 9650,
      "buy": 9651,
      "opposite": 9652,
      "differences": 9653,
      "criminal": 9654,
      "scheme": 9655,
      "habitat": 9656,
      "ras": 9657,
      "atmosphere": 9658,
      "lisa": 9659,
      "carto": 9660,
      "orange": 9661,
      "coordin": 9662,
      "desire": 9663,
      "attributed": 9664,
      "korea": 9665,
      "pes": 9666,
      "weapon": 9667,
      "thereafter": 9668,
      "recovered": 9669,
      "poses": 9670,
      "thy": 9671,
      "somer": 9672,
      "platinum": 9673,
      "neck": 9674,
      "otherwise": 9675,
      "strengthen": 9676,
      "approv": 9677,
      "13th": 9678,
      "phill": 9679,
      "casting": 9680,
      "wrong": 9681,
      "shed": 9682,
      "rug": 9683,
      "adults": 9684,
      "strategy": 9685,
      "stayed": 9686,
      "amy": 9687,
      "insur": 9688,
      "bone": 9689,
      "marines": 9690,
      "reinforce": 9691,
      "accom": 9692,
      "ultural": 9693,
      "fled": 9694,
      "gus": 9695,
      "ceme": 9696,
      "serves": 9697,
      "atro": 9698,
      "pattern": 9699,
      "fitted": 9700,
      "morris": 9701,
      "facing": 9702,
      "1952": 9703,
      "retirement": 9704,
      "communities": 9705,
      "effectively": 9706,
      "falling": 9707,
      "murray": 9708,
      "outbreak": 9709,
      "ministry": 9710,
      "fab": 9711,
      "robinson": 9712,
      "71": 9713,
      "stri": 9714,
      "musicians": 9715,
      "joy": 9716,
      "ayer": 9717,
      "crosses": 9718,
      "nelson": 9719,
      "dissip": 9720,
      "elections": 9721,
      "aza": 9722,
      "documentary": 9723,
      "accounts": 9724,
      "inqu": 9725,
      "chain": 9726,
      "unk": 9727,
      "stall": 9728,
      "84": 9729,
      "races": 9730,
      "wear": 9731,
      "73": 9732,
      "underground": 9733,
      "wine": 9734,
      "parks": 9735,
      "1933": 9736,
      "trials": 9737,
      "deplo": 9738,
      "prey": 9739,
      "attracted": 9740,
      "inspiration": 9741,
      "rud": 9742,
      "submarine": 9743,
      "convinced": 9744,
      "fee": 9745,
      "coin": 9746,
      "batting": 9747,
      "hil": 9748,
      "tub": 9749,
      "sees": 9750,
      "dating": 9751,
      "racing": 9752,
      "mck": 9753,
      "movements": 9754,
      "refu": 9755,
      "swi": 9756,
      "pale": 9757,
      "commemor": 9758,
      "solution": 9759,
      "votes": 9760,
      "hans": 9761,
      "injuries": 9762,
      "sweet": 9763,
      "battleships": 9764,
      "immig": 9765,
      "iors": 9766,
      "genes": 9767,
      "cip": 9768,
      "raise": 9769,
      "needs": 9770,
      "beck": 9771,
      "relative": 9772,
      "quo": 9773,
      "tone": 9774,
      "mete": 9775,
      "renew": 9776,
      "boil": 9777,
      "separated": 9778,
      "sudden": 9779,
      "1935": 9780,
      "sweden": 9781,
      "ensure": 9782,
      "symph": 9783,
      "enses": 9784,
      "cad": 9785,
      "pak": 9786,
      "uran": 9787,
      "ulture": 9788,
      "1949": 9789,
      "welsh": 9790,
      "garrison": 9791,
      "faces": 9792,
      "predecess": 9793,
      "sover": 9794,
      "1951": 9795,
      "restored": 9796,
      "matthe": 9797,
      "compos": 9798,
      "queens": 9799,
      "tomb": 9800,
      "intense": 9801,
      "difficulty": 9802,
      "remn": 9803,
      "toronto": 9804,
      "measures": 9805,
      "rent": 9806,
      "requested": 9807,
      "distinguished": 9808,
      "seemed": 9809,
      "delayed": 9810,
      "ique": 9811,
      "authors": 9812,
      "agas": 9813,
      "facility": 9814,
      "sist": 9815,
      "dock": 9816,
      "standards": 9817,
      "surrounded": 9818,
      "hud": 9819,
      "radar": 9820,
      "puer": 9821,
      "atus": 9822,
      "byzantine": 9823,
      "bast": 9824,
      "send": 9825,
      "hoped": 9826,
      "absor": 9827,
      "productions": 9828,
      "consum": 9829,
      "elsewhere": 9830,
      "loco": 9831,
      "netherlands": 9832,
      "childhood": 9833,
      "impressed": 9834,
      "telling": 9835,
      "convection": 9836,
      "divers": 9837,
      "penalty": 9838,
      "apers": 9839,
      "courts": 9840,
      "reviewer": 9841,
      "satell": 9842,
      "internet": 9843,
      "publishing": 9844,
      "concern": 9845,
      "sts": 9846,
      "moderate": 9847,
      "temperatures": 9848,
      "jazz": 9849,
      "meets": 9850,
      "examples": 9851,
      "iraq": 9852,
      "abled": 9853,
      "greatly": 9854,
      "bie": 9855,
      "cement": 9856,
      "blu": 9857,
      "cathedral": 9858,
      "jews": 9859,
      "obtain": 9860,
      "bears": 9861,
      "involvement": 9862,
      "astro": 9863,
      "wooden": 9864,
      "dangerous": 9865,
      "pha": 9866,
      "acks": 9867,
      "hind": 9868,
      "easy": 9869,
      "leads": 9870,
      "legs": 9871,
      "hid": 9872,
      "gra": 9873,
      "accompl": 9874,
      "1900": 9875,
      "wet": 9876,
      "dimen": 9877,
      "assem": 9878,
      "frequent": 9879,
      "adaptation": 9880,
      "spoke": 9881,
      "lith": 9882,
      "hatt": 9883,
      "ante": 9884,
      "hundreds": 9885,
      "kelly": 9886,
      "9th": 9887,
      "immediate": 9888,
      "eggs": 9889,
      "recordings": 9890,
      "scholars": 9891,
      "cope": 9892,
      "learn": 9893,
      "armen": 9894,
      "clay": 9895,
      "anyone": 9896,
      "pregn": 9897,
      "lose": 9898,
      "assass": 9899,
      "formally": 9900,
      "sight": 9901,
      "hub": 9902,
      "comfort": 9903,
      "thomp": 9904,
      "techniques": 9905,
      "firing": 9906,
      "amph": 9907,
      "journalist": 9908,
      "phr": 9909,
      "hes": 9910,
      "learning": 9911,
      "ij": 9912,
      "bureau": 9913,
      "encouraged": 9914,
      "somewhat": 9915,
      "83": 9916,
      "graduate": 9917,
      "stones": 9918,
      "dot": 9919,
      "suffering": 9920,
      "margin": 9921,
      "12th": 9922,
      "prohib": 9923,
      "khan": 9924,
      "croatian": 9925,
      "poetry": 9926,
      "oles": 9927,
      "trained": 9928,
      "iot": 9929,
      "termine": 9930,
      "trophy": 9931,
      "talent": 9932,
      "islam": 9933,
      "russell": 9934,
      "pilo": 9935,
      "modified": 9936,
      "oz": 9937,
      "rice": 9938,
      "mars": 9939,
      "legislation": 9940,
      "forcing": 9941,
      "determine": 9942,
      "powered": 9943,
      "mature": 9944,
      "horror": 9945,
      "premiered": 9946,
      "dismissed": 9947,
      "rav": 9948,
      "orb": 9949,
      "promise": 9950,
      "thompson": 9951,
      "dish": 9952,
      "jet": 9953,
      "bos": 9954,
      "profit": 9955,
      "vation": 9956,
      "carter": 9957,
      "calcul": 9958,
      "interests": 9959,
      "dna": 9960,
      "veget": 9961,
      "steven": 9962,
      "attempting": 9963,
      "aco": 9964,
      "whereas": 9965,
      "alcohol": 9966,
      "wig": 9967,
      "attacking": 9968,
      "nbc": 9969,
      "arrangement": 9970,
      "yi": 9971,
      "convoy": 9972,
      "nfl": 9973,
      "changing": 9974,
      "ture": 9975,
      "brick": 9976,
      "harbor": 9977,
      "extreme": 9978,
      "monitor": 9979,
      "tap": 9980,
      "rets": 9981,
      "lod": 9982,
      "grace": 9983,
      "starred": 9984,
      "puerto": 9985,
      "berlin": 9986,
      "hav": 9987,
      "controversial": 9988,
      "dict": 9989,
      "formerly": 9990,
      "pip": 9991,
      "commonwealth": 9992,
      "cript": 9993,
      "impl": 9994,
      "questions": 9995,
      "cloud": 9996,
      "liqu": 9997,
      "closer": 9998,
      "dee": 9999,
      "mcc": 10000,
      "register": 10001,
      "township": 10002,
      "biggest": 10003,
      "conclusion": 10004,
      "guardian": 10005,
      "spears": 10006,
      "intent": 10007,
      "arian": 10008,
      "absence": 10009,
      "bats": 10010,
      "chel": 10011,
      "apple": 10012,
      "hungarian": 10013,
      "influences": 10014,
      "strik": 10015,
      "nell": 10016,
      "wag": 10017,
      "wolf": 10018,
      "driver": 10019,
      "genetic": 10020,
      "blow": 10021,
      "plain": 10022,
      "harris": 10023,
      "landed": 10024,
      "suic": 10025,
      "1913": 10026,
      "deemed": 10027,
      "batman": 10028,
      "instruments": 10029,
      "informed": 10030,
      "scand": 10031,
      "parker": 10032,
      "detach": 10033,
      "erce": 10034,
      "files": 10035,
      "extin": 10036,
      "covers": 10037,
      "apparently": 10038,
      "arry": 10039,
      "anes": 10040,
      "toms": 10041,
      "amb": 10042,
      "landsc": 10043,
      "terror": 10044,
      "laboratory": 10045,
      "armament": 10046,
      "novels": 10047,
      "imes": 10048,
      "loop": 10049,
      "narrative": 10050,
      "ouse": 10051,
      "depos": 10052,
      "politan": 10053,
      "testing": 10054,
      "distributed": 10055,
      "1926": 10056,
      "oxy": 10057,
      "longest": 10058,
      "satisf": 10059,
      "enters": 10060,
      "1927": 10061,
      "representing": 10062,
      "bronze": 10063,
      "territories": 10064,
      "operate": 10065,
      "watching": 10066,
      "900": 10067,
      "fc": 10068,
      "tha": 10069,
      "creative": 10070,
      "niel": 10071,
      "gallery": 10072,
      "diet": 10073,
      "normally": 10074,
      "restoration": 10075,
      "mack": 10076,
      "aa": 10077,
      "fishing": 10078,
      "ameter": 10079,
      "victims": 10080,
      "hearing": 10081,
      "mani": 10082,
      "engage": 10083,
      "vs": 10084,
      "matters": 10085,
      "attorney": 10086,
      "diagno": 10087,
      "embar": 10088,
      "phe": 10089,
      "zero": 10090,
      "uro": 10091,
      "substit": 10092,
      "secured": 10093,
      "gib": 10094,
      "basin": 10095,
      "tenance": 10096,
      "1934": 10097,
      "1921": 10098,
      "hole": 10099,
      "mainstream": 10100,
      "visitors": 10101,
      "unsuccessful": 10102,
      "iley": 10103,
      "finn": 10104,
      "weekend": 10105,
      "wes": 10106,
      "defended": 10107,
      "imet": 10108,
      "disci": 10109,
      "meteor": 10110,
      "coins": 10111,
      "releases": 10112,
      "refuge": 10113,
      "desert": 10114,
      "believes": 10115,
      "hin": 10116,
      "comics": 10117,
      "agents": 10118,
      "excess": 10119,
      "resolution": 10120,
      "ancy": 10121,
      "depicted": 10122,
      "influential": 10123,
      "mini": 10124,
      "format": 10125,
      "giants": 10126,
      "printed": 10127,
      "graphical": 10128,
      "houston": 10129,
      "dominated": 10130,
      "fisher": 10131,
      "raaf": 10132,
      "housing": 10133,
      "trek": 10134,
      "santa": 10135,
      "cliff": 10136,
      "videos": 10137,
      "churches": 10138,
      "mitch": 10139,
      "inary": 10140,
      "clip": 10141,
      "ixon": 10142,
      "140": 10143,
      "forth": 10144,
      "indians": 10145,
      "cous": 10146,
      "founder": 10147,
      "dum": 10148,
      "jacob": 10149,
      "notably": 10150,
      "devil": 10151,
      "exit": 10152,
      "string": 10153,
      "1912": 10154,
      "relationships": 10155,
      "shr": 10156,
      "liz": 10157,
[...]
